{"<s>":0,"<pad>":1,"</s>":2,"<unk>":3,"<mask>":4,"!":5,"\"":6,"#":7,"$":8,"%":9,"&":10,"'":11,"(":12,")":13,"*":14,"+":15,",":16,"-":17,".":18,"/":19,"0":20,"1":21,"2":22,"3":23,"4":24,"5":25,"6":26,"7":27,"8":28,"9":29,":":30,";":31,"<":32,"=":33,">":34,"?":35,"@":36,"A":37,"B":38,"C":39,"D":40,"E":41,"F":42,"G":43,"H":44,"I":45,"J":46,"K":47,"L":48,"M":49,"N":50,"O":51,"P":52,"Q":53,"R":54,"S":55,"T":56,"U":57,"V":58,"W":59,"X":60,"Y":61,"Z":62,"[":63,"\\":64,"]":65,"^":66,"_":67,"`":68,"a":69,"b":70,"c":71,"d":72,"e":73,"f":74,"g":75,"h":76,"i":77,"j":78,"k":79,"l":80,"m":81,"n":82,"o":83,"p":84,"q":85,"r":86,"s":87,"t":88,"u":89,"v":90,"w":91,"x":92,"y":93,"z":94,"{":95,"|":96,"}":97,"~":98,"¡":99,"¢":100,"£":101,"¤":102,"¥":103,"¦":104,"§":105,"¨":106,"©":107,"ª":108,"«":109,"¬":110,"®":111,"¯":112,"°":113,"±":114,"²":115,"³":116,"´":117,"µ":118,"¶":119,"·":120,"¸":121,"¹":122,"º":123,"»":124,"¼":125,"½":126,"¾":127,"¿":128,"À":129,"Á":130,"Â":131,"Ã":132,"Ä":133,"Å":134,"Æ":135,"Ç":136,"È":137,"É":138,"Ê":139,"Ë":140,"Ì":141,"Í":142,"Î":143,"Ï":144,"Ð":145,"Ñ":146,"Ò":147,"Ó":148,"Ô":149,"Õ":150,"Ö":151,"×":152,"Ø":153,"Ù":154,"Ú":155,"Û":156,"Ü":157,"Ý":158,"Þ":159,"ß":160,"à":161,"á":162,"â":163,"ã":164,"ä":165,"å":166,"æ":167,"ç":168,"è":169,"é":170,"ê":171,"ë":172,"ì":173,"í":174,"î":175,"ï":176,"ð":177,"ñ":178,"ò":179,"ó":180,"ô":181,"õ":182,"ö":183,"÷":184,"ø":185,"ù":186,"ú":187,"û":188,"ü":189,"ý":190,"þ":191,"ÿ":192,"Ā":193,"ā":194,"Ă":195,"ă":196,"Ą":197,"ą":198,"Ć":199,"ć":200,"Ĉ":201,"ĉ":202,"Ċ":203,"ċ":204,"Č":205,"č":206,"Ď":207,"ď":208,"Đ":209,"đ":210,"Ē":211,"ē":212,"Ĕ":213,"ĕ":214,"Ė":215,"ė":216,"Ę":217,"ę":218,"Ě":219,"ě":220,"Ĝ":221,"ĝ":222,"Ğ":223,"ğ":224,"Ġ":225,"ġ":226,"Ģ":227,"ģ":228,"Ĥ":229,"ĥ":230,"Ħ":231,"ħ":232,"Ĩ":233,"ĩ":234,"Ī":235,"ī":236,"Ĭ":237,"ĭ":238,"Į":239,"į":240,"İ":241,"ı":242,"Ĳ":243,"ĳ":244,"Ĵ":245,"ĵ":246,"Ķ":247,"ķ":248,"ĸ":249,"Ĺ":250,"ĺ":251,"Ļ":252,"ļ":253,"Ľ":254,"ľ":255,"Ŀ":256,"ŀ":257,"Ł":258,"ł":259,"Ń":260,"Ġt":261,"he":262,"Ġa":263,"in":264,"Ġthe":265,"re":266,"Ġw":267,"ou":268,"Ġs":269,"on":270,"er":271,"ha":272,"nd":273,"is":274,"it":275,"Ġb":276,"Ġo":277,"Ġc":278,"Ġm":279,"Ġf":280,"ing":281,"or":282,"an":283,"ed":284,"ll":285,"Ġd":286,"en":287,"Ġto":288,"es":289,"Ġp":290,"Ġof":291,"Ġy":292,"Ġin":293,"ar":294,"at":295,"Ġand":296,"Ġl":297,"hat":298,"Ġyou":299,"as":300,"Ġg":301,"om":302,"Ġn":303,"ĠI":304,"ic":305,"ow":306,"le":307,"ve":308,"ot":309,"Ġh":310,"Ġhe":311,"al":312,"et":313,"Ġha":314,"'s":315,"us":316,"Ġth":317,"ay":318,"Ġit":319,"Ġis":320,"Ġbe":321,"Ġthat":322,"Ġon":323,"ion":324,"id":325,"Ġe":326,"gh":327,"ut":328,"ld":329,"ent":330,"im":331,"Ġre":332,"Ġwas":333,"ac":334,"Ġwe":335,"ver":336,"am":337,"The":338,"..":339,"Ġfor":340,"ly":341,"ĠS":342,"st":343,"ri":344,"ro":345,"ir":346,"ad":347,"se":348,"ke":349,"Ġ.":350,"Ġst":351,"ght":352,"oo":353,"'t":354,"ĠA":355,"out":356,"ith":357,"Ġme":358,"ĠC":359,"all":360,"Ġk":361,"Ġu":362,"Ġan":363,"ĠM":364,"Ġwith":365,"ur":366,"Ġas":367,"Ġdo":368,"ct":369,"her":370,"ce":371,"ill":372,"ter":373,"if":374,"ch":375,"Ġwh":376,"Ġse":377,"ome":378,"Ġare":379,"ĠH":380,"il":381,"Ġnot":382,"Ġhave":383,"ĠB":384,"Ġ1":385,"and":386,"Ġat":387,"Ġthis":388,"ould":389,"ant":390,"Ġgo":391,"ust":392,"ation":393,"Ġli":394,"op":395,"ain":396,"Ġkn":397,"You":398,"ea":399,"ĠP":400,"ĠT":401,"Ġ,":402,"un":403,"ge":404,"ol":405,"th":406,"Ġhis":407,"ul":408,"Ġ\"":409,"rom":410,"...":411,"ore":412,"ĠW":413,"ell":414,"Ġne":415,"Ġr":416,"Ġknow":417,"Ġj":418,"our":419,"ĠD":420,"Ġde":421,"pp":422,"Ġcan":423,"ĠG":424,"Ġthey":425,"um":426,"ĠThe":427,"Ġso":428,"est":429,"Ġ?":430,"Ġal":431,"Ġall":432,"Ġab":433,"Ġmy":434,"ist":435,"ers":436,"ĠR":437,"ie":438,"Ġyour":439,"art":440,"Ġby":441,"Ġfrom":442,"ess":443,"Ġsh":444,"Ġor":445,"Ġ2":446,"ĠF":447,"Ġwhat":448,"nt":449,"ab":450,"os":451,"ĠL":452,"el":453,"Ġone":454,"Ġcon":455,"ĠN":456,"Ġwhe":457,"Ġthere":458,"ig":459,"ight":460,"han":461,"ally":462,"Ġup":463,"qu":464,"em":465,"Ġcom":466,"one":467,"Ġhad":468,"Ġbut":469,"Ġher":470,"Ġsu":471,"red":472,"ry":473,"ĠJ":474,"'re":475,"Ġhim":476,"Ġout":477,"ra":478,"ack":479,"ate":480,"ood":481,"very":482,"ook":483,"Ġlike":484,"Ġwor":485,"Ġsa":486,"res":487,"ame":488,"ive":489,"Ġpl":490,"Ġus":491,"Ġ(":492,"ong":493,"'m":494,"Ġwere":495,"âĢ":496,"ake":497,"od":498,"ink":499,"ck":500,"Ġshe":501,"Ġpro":502,"Ġabout":503,"ĠE":504,"ast":505,"Ġget":506,"Ġex":507,"Ġv":508,"pe":509,"It":510,"ort":511,"ound":512,"ind":513,"ard":514,"ity":515,"Ġdon":516,"And":517,"ich":518,"right":519,"ĠO":520,"Ġjust":521,"Ġ19":522,"ies":523,"He":524,"Ġwho":525,"ear":526,"eah":527,"Ġdid":528,"ak":529,"Ġhere":530,"ber":531,"Ġthem":532,"Ġno":533,"ime":534,"ine":535,"Ġman":536,"Ġwant":537,"Ġwould":538,"Ġ20":539,"Ġif":540,"Ġ'":541,"Ġwill":542,"ud":543,"ap":544,"ĠK":545,"Ġthink":546,"ous":547,"'ll":548,"ven":549,"Ġsome":550,"ost":551,"What":552,"ep":553,"hing":554,"Ġint":555,"Ġany":556,"own":557,"ice":558,"ag":559,"Ġright":560,"ment":561,"ide":562,"Ġgot":563,"Ġhas":564,"ther":565,"use":566,"itt":567,"Ġwhich":568,"ough":569,"Ġtr":570,"fe":571,"hi":572,"ca":573,"Ġsee":574,"Ġwhen":575,"Ġsaid":576,"ure":577,"Ġar":578,"Ġag":579,"Ġpe":580,"Ġsay":581,"way":582,"ia":583,"Ġtime":584,"Ġtw":585,"iv":586,"ĠHe":587,"so":588,"Ġbeen":589,"ian":590,"Ġsp":591,"are":592,"ace":593,"Ġnow":594,"ove":595,"ick":596,"ople":597,"ci":598,"ĠU":599,"We":600,"ĠIt":601,"'ve":602,"Ġtheir":603,"ose":604,"Yeah":605,"Ġle":606,"Ġlook":607,"--":608,"Ġcl":609,"ish":610,"lf":611,"reat":612,"na":613,"Ġmore":614,"Ġthen":615,"Ġgoing":616,"age":617,"So":618,"ite":619,"ree":620,"Ġother":621,"Ġpeople":622,"ary":623,"Ġcould":624,"Ġ=":625,"ĠSt":626,"No":627,"other":628,"ne":629,"Ġoff":630,"ue":631,"Ġback":632,"his":633,"act":634,"But":635,"Ġover":636,"irst":637,"Oh":638,"ass":639,"Ġqu":640,"ount":641,"ond":642,"Ġvery":643,"ings":644,"cause":645,"Ġro":646,"ble":647,"per":648,"Ġgr":649,"Ġaf":650,"pt":651,"Ġfe":652,"ans":653,"Ġwork":654,"Ġtwo":655,"Ġgood":656,"That":657,"Ġtoo":658,"Ġbr":659,"end":660,"omet":661,"Ġen":662,"erm":663,"og":664,"pl":665,"ated":666,"oll":667,"ĠĠ":668,"the":669,"Ġfirst":670,"ions":671,"ord":672,"Ġinto":673,"hed":674,"ase":675,"Ġpart":676,"kay":677,"00":678,"Ġhow":679,"Ġdown":680,"orn":681,"alk":682,"ub":683,"we":684,"Ġun":685,"Ġway":686,"ade":687,"Ġthan":688,"ire":689,"Ġalso":690,"oy":691,"ff":692,"ittle":693,"Ġcall":694,"iz":695,"mer":696,"Ġam":697,"ought":698,"Ġyear":699,"hy":700,"ater":701,"Ġpr":702,"Ġcomp":703,"ov":704,"Ġcome":705,"Well":706,"Ġbl":707,"Ġour":708,"ance":709,"Ġwhere":710,"nder":711,"ach":712,"ife":713,"Ġagain":714,"Ġim":715,"ng":716,"Ġonly":717,"ĠV":718,"Ġevery":719,"ĠIn":720,"Ġlittle":721,"Ġad":722,"cc":723,"urn":724,"har":725,"oh":726,"Ġsomet":727,"ru":728,"Ġday":729,"wn":730,"Ġbet":731,"ang":732,"Ġplay":733,"ho":734,"Ġwell":735,"amp":736,"here":737,"orm":738,"Ġte":739,"Ġact":740,"Ġneed":741,"ence":742,"ress":743,"uch":744,"av":745,"Ġcont":746,"Ġbecause":747,"Ġdis":748,"Ġgu":749,"ty":750,".\"":751,"self":752,"Ġmake":753,"In":754,"Ġtake":755,"Ġafter":756,"ĠY":757,"able":758,"cl":759,"ren":760,"oc":761,"ory":762,"fore":763,"int":764,"be":765,"ign":766,"Ġbu":767,"Ġshould":768,"Ġreally":769,"Ġlet":770,"ew":771,"ark":772,"thing":773,"Ġwr":774,"iss":775,"ical":776,"ens":777,"ip":778,"Ġthese":779,"ict":780,"Ġhapp":781,"ather":782,"Ġtell":783,"Ġpre":784,"ob":785,"ult":786,"Ġ201":787,"au":788,"Ġthr":789,"Ġunder":790,"onna":791,"Ġmuch":792,"Ġdoes":793,"Ġfl":794,"Ġput":795,"ft":796,"uck":797,"Ġapp":798,"ĠUn":799,"Ġmean":800,"This":801,"Ġpo":802,"land":803,"ates":804,"Ġnew":805,"Ġsomething":806,"Ġper":807,"ied":808,"ool":809,"ons":810,"hen":811,"les":812,"Ġgonna":813,"ile":814,"ect":815,"Ġres":816,"Ġmade":817,"Ġco":818,"ving":819,"Ġser":820,"They":821,"ved":822,"ail":823,"Ġlong":824,"Ġcomm":825,"Ġmay":826,"Ġsc":827,"ations":828,"'d":829,"ull":830,"ody":831,"Ġ''":832,"``":833,"Ġer":834,"Ġeven":835,"ĠâĢ":836,"Ġtalk":837,"te":838,"ited":839,"Ġits":840,"Ġnever":841,"Ġbefore":842,"du":843,"ady":844,"vers":845,"port":846,"Ġdidn":847,"Ġsm":848,"Ġcar":849,"ily":850,"ually":851,"ps":852,"ks":853,"ath":854,"aw":855,"ors":856,"ouse":857,"Ġrem":858,"ious":859,"ition":860,"She":861,"ock":862,"ting":863,"There":864,"Yes":865,"ried":866,"Ġ3":867,"vel":868,"Ġke":869,"ran":870,"Ġmany":871,"Ġhand":872,"Ġrec":873,"tain":874,"ĠCh":875,"Ġdif":876,"Ġyears":877,"Ġgreat":878,"ward":879,"Ġlife":880,"âĢĿ":881,"Ġmost":882,"ix":883,"you":884,"Ġthrough":885,"ise":886,"If":887,"ave":888,"ful":889,"Ġhel":890,"Ġchan":891,"rent":892,"get":893,"igh":894,"Ġ200":895,"ction":896,"Ġsha":897,"Ġstill":898,"Ġthing":899,"day":900,"Ġthought":901,"ces":902,"Ġthings":903,"Ġsec":904,"Ġbel":905,"ince":906,"gin":907,"old":908,"Ġbec":909,"Ġold":910,"Ġthose":911,"ial":912,"what":913,"Ġspe":914,"Ġwent":915,"ever":916,"Ġthree":917,"Ġstart":918,"Ġaway":919,"hes":920,"ves":921,"Ġcame":922,"Ġused":923,"oss":924,"oney":925,"Ġcalled":926,"Ġcount":927,"Ġfound":928,"Ġlove":929,"ents":930,"Ġlast":931,"Ġmust":932,"Ġdes":933,"Ġdoing":934,"How":935,"tern":936,"Ġask":937,"Ġfind":938,"Ġch":939,"Ġshow":940,"Ġhome":941,"Ġ!":942,"riend":943,"imes":944,"Ġcr":945,"oth":946,"li":947,"xt":948,"\".":949,"Ġend":950,"Ġcour":951,"Ġhelp":952,"up":953,"Ġbeing":954,"gan":955,"ced":956,"lease":957,"ened":958,"Ġatt":959,"Ġown":960,"Ġgive":961,"Ġi":962,"meric":963,"form":964,"my":965,"atch":966,"Ġmin":967,"Ġsuch":968,"als":969,"ĠYou":970,"ars":971,"Ġname":972,"Ġlea":973,"hild":974,"Ġfam":975,"irl":976,"Ġsame":977,"oot":978,"ont":979,"ways":980,"Do":981,"Ġnight":982,"Ġkind":983,"ye":984,"Ġdiffe":985,"man":986,"ĠMr":987,"Ġlot":988,"chool":989,"ss":990,"ait":991,"Now":992,"ident":993,"Ġmov":994,"Ġtry":995,"rest":996,"Ġwon":997,"aking":998,"ning":999,"Why":1000,"Ġbig":1001,"ny":1002,"ham":1003,"de":1004,"outh":1005,"Ġcare":1006,"any":1007,"ild":1008,"Ġwhy":1009,"Ġear":1010,"ĠAmeric":1011,"ee":1012,"Ġ18":1013,"body":1014,"Ġchild":1015,"Ġworld":1016,"Ġop":1017,"erson":1018,"Ġwom":1019,"Ġfeel":1020,"Ġrel":1021,"Ġsupp":1022,"Ġmight":1023,"ased":1024,"Ġpol":1025,"Ġplace":1026,"gg":1027,"Ġhead":1028,"Ġnum":1029,"ĠShe":1030,"side":1031,"der":1032,"ember":1033,"Ġkill":1034,"ower":1035,"ational":1036,"ating":1037,"ute":1038,"Ġuse":1039,"ĠAr":1040,"uring":1041,").":1042,"Ġaround":1043,"air":1044,"Ġfriend":1045,"gr":1046,"Ġ4":1047,"Ġturn":1048,"\",":1049,"Ġche":1050,"ĠBr":1051,"Ġfin":1052,"ts":1053,"Ġhar":1054,"Ġreg":1055,"Ġset":1056,"ubl":1057,"that":1058,"Ġmar":1059,"Ġanother":1060,"pect":1061,"Ġalways":1062,"Ġsl":1063,"),":1064,"Ġguy":1065,"ĠThey":1066,"Ġacc":1067,"Ġac":1068,"mb":1069,"ween":1070,"âĻ":1071,"St":1072,"vent":1073,"Let":1074,"All":1075,"ics":1076,"ah":1077,"Don":1078,"clud":1079,"Ġsure":1080,"Ġhouse":1081,"Ġleft":1082,"IN":1083,"Ġpres":1084,"ĠMar":1085,"Ġmoney":1086,"Ġsy":1087,"aught":1088,"ib":1089,"ener":1090,"ĠâĢľ":1091,"ular":1092,"Ġbetter":1093,"Ã©":1094,"Ġanything":1095,"led":1096,"az":1097,"ĠUnited":1098,"ĠĠĠĠ":1099,"orry":1100,"ible":1101,"ott":1102,"Come":1103,"ollow":1104,"ness":1105,"mber":1106,"Ġfour":1107,"Ġform":1108,"und":1109,"Ġkeep":1110,"ug":1111,"Ġsur":1112,"Ġbelie":1113,"ple":1114,"Ġreal":1115,"Ġdifferent":1116,"âĻª":1117,"Ġele":1118,"Ġbit":1119,"ters":1120,"Ġdone":1121,"Ġtold":1122,"fect":1123,"Ġ5":1124,"Ġdr":1125,"Ġel":1126,"Ġmom":1127,"Ġboy":1128,"ER":1129,"ird":1130,"Ġbetween":1131,"Ġmon":1132,"Ġ|":1133,"Ġrun":1134,"Ġword":1135,"ual":1136,"Ġbo":1137,"ĠAnd":1138,"ph":1139,",\"":1140,"cial":1141,"Ġcity":1142,"Ġgirl":1143,"uh":1144,"Ġsecond":1145,"ĠDe":1146,"Ġknown":1147,"ale":1148,"ĠAl":1149,"orth":1150,"Ġent":1151,"Ġpoint":1152,"ished":1153,"yes":1154,"Ġschool":1155,"Ġwhile":1156,"Okay":1157,"Ġever":1158,"ason":1159,"ric":1160,"My":1161,"ject":1162,"Ġperson":1163,"ames":1164,"Ġtook":1165,"Ġgl":1166,"row":1167,"ĠThis":1168,"Ġmat":1169,"Ġcons":1170,"Is":1171,"Ġret":1172,"akes":1173,"ork":1174,"Ġ199":1175,"io":1176,"ĠStates":1177,"ĠNew":1178,"Ġ;":1179,"Ġinclud":1180,"Ġdec":1181,"Ġerm":1182,"Ġsw":1183,"ntil":1184,"âĢĻ":1185,"Ġsub":1186,"ret":1187,"Ġinv":1188,"Ġcle":1189,"aj":1190,"Ġmen":1191,"Ġstud":1192,"rew":1193,"Ġchar":1194,"ities":1195,"Ġwar":1196,"Ġmet":1197,"Hey":1198,"cept":1199,"Ġbook":1200,"Ġwater":1201,"ative":1202,"olog":1203,"its":1204,"hip":1205,"Ġokay":1206,"ohn":1207,"Ġstop":1208,"cess":1209,"Ġmus":1210,"no":1211,"Ġnext":1212,"but":1213,"Than":1214,"When":1215,"Ġbus":1216,"Be":1217,"ner":1218,"Ġdist":1219,"Ġfollow":1220,"Ġuh":1221,"oun":1222,"Ġcourse":1223,"Ġinst":1224,"ope":1225,"Ġass":1226,"Ġob":1227,"Ġboth":1228,"Ġfar":1229,"cy":1230,"ivers":1231,"Ġstr":1232,"ctor":1233,"ĠWhat":1234,"ton":1235,"ĠEng":1236,"ins":1237,"of":1238,"Ġcent":1239,"Ġnothing":1240,"une":1241,"Ġseem":1242,"ĠRe":1243,"ĠAn":1244,"Ġbest":1245,"Ġpass":1246,"eak":1247,"Ġsaw":1248,"Ġprodu":1249,"ross":1250,"Not":1251,"Ġeach":1252,"Ġ-":1253,"where":1254,"Ġuntil":1255,"Ġcap":1256,"ling":1257,"Ġwee":1258,"stand":1259,"to":1260,"me":1261,"ision":1262,"Ġsing":1263,"vern":1264,"ures":1265,"Ġph":1266,"ĠAs":1267,"Ġyeah":1268,"Ġactually":1269,"Ġnumber":1270,"Ġsmall":1271,"ax":1272,"ung":1273,"ĠGod":1274,"cer":1275,"Ġfather":1276,"Ġlater":1277,"Ġpop":1278,"ĠNo":1279,"ote":1280,"osed":1281,"Ġdoesn":1282,"Ġcha":1283,"ash":1284,"Ġbre":1285,"ms":1286,"Ġlar":1287,"ream":1288,"Ġhigh":1289,"Ġmother":1290,"Ġadd":1291,"ired":1292,"ok":1293,"Ġlist":1294,"Ġem":1295,"ier":1296,"Ġlight":1297,"ĠInd":1298,"less":1299,"iet":1300,"Ġonce":1301,"Ġfun":1302,"19":1303,"Ġwanted":1304,"uff":1305,"part":1306,"Ġelse":1307,"On":1308,"ged":1309,"Ġagainst":1310,"ĠAmerican":1311,"aid":1312,"Ġfamily":1313,"rist":1314,"uth":1315,"Ġinc":1316,"Ġ6":1317,"let":1318,"ific":1319,"ublic":1320,"Ġca":1321,"Ġroom":1322,"Ġproble":1323,"Ġenough":1324,"Ġ--":1325,"Where":1326,"Ġbecame":1327,"Ġloc":1328,"Ġseen":1329,"ably":1330,"ten":1331,"Ġwait":1332,"ger":1333,"Who":1334,"Ġfact":1335,"gether":1336,"Ġtogether":1337,"ned":1338,"ines":1339,"Just":1340,"Ġstand":1341,"Ġfew":1342,"AN":1343,"Ġeverything":1344,"Ġhard":1345,"Ġinte":1346,"Ġimp":1347,"Ġyoung":1348,"ister":1349,"Ġsays":1350,"ĠBut":1351,"ury":1352,"Ġsince":1353,"iness":1354,"Ġsim":1355,"ries":1356,"Ġyes":1357,"Ġrest":1358,"Ġquite":1359,"Ġfr":1360,"Ġwithout":1361,"Look":1362,"Ġside":1363,"Ġstay":1364,"Ġimport":1365,"Ġinter":1366,"Ġopen":1367,"ane":1368,"Ġdied":1369,"fter":1370,"Ġmind":1371,"omm":1372,"ĠZ":1373,"Ġsorry":1374,"Ġmeet":1375,"Ġbad":1376,"Ġsign":1377,"Ġ198":1378,"ene":1379,"Ġread":1380,"Ġhear":1381,"att":1382,"Ġtra":1383,"orning":1384,"dd":1385,"Ġlive":1386,"Ġind":1387,"Ġid":1388,"uc":1389,"Ġcoll":1390,"ised":1391,"okay":1392,"ike":1393,"ank":1394,"ense":1395,"ral":1396,"Then":1397,"ĠJohn":1398,"Ġcoming":1399,"ism":1400,"Ġduring":1401,"ĠIs":1402,"ution":1403,"Ġlooking":1404,"Ġunderstand":1405,"Ġsix":1406,"iew":1407,"Ġrep":1408,"Ġhappened":1409,"Ġfive":1410,"ina":1411,"Ġleave":1412,"Are":1413,"son":1414,"Ġbelieve":1415,"Ġev":1416,"ertain":1417,"Ġpret":1418,"Ġmain":1419,"Ġdri":1420,"Ġdire":1421,"Ġquest":1422,"Ġteam":1423,"Ġthough":1424,"Ġhum":1425,"Ġtoday":1426,"Ġwhole":1427,"Ġdisc":1428,"ither":1429,"ready":1430,"sel":1431,"Ġkid":1432,"Ġchildren":1433,"ING":1434,"Ġexp":1435,"ital":1436,"Ġland":1437,"stem":1438,"Ġsit":1439,"Ġdays":1440,"Ġson":1441,"Ġext":1442,"Ġtown":1443,"anna":1444,"ball":1445,"leep":1446,"Ġtimes":1447,"hm":1448,"Ġmove":1449,"Ġsir":1450,"by":1451,"Ġmed":1452,"Ġgetting":1453,"ec":1454,"ĠTh":1455,"Ġisn":1456,"aster":1457,"000":1458,"ield":1459,"Ġtrans":1460,"ists":1461,"Ġnice":1462,"Ġface":1463,"Ġmusic":1464,"ets":1465,"Ġbro":1466,"Ġheard":1467,"iversity":1468,"ĠFr":1469,"HE":1470,"Ġinterest":1471,"cted":1472,"ĠQ":1473,"Ġbuild":1474,"oup":1475,"Ġdra":1476,"Ġed":1477,"Ġjob":1478,"ants":1479,"Ġplease":1480,"Ġposs":1481,"Ġnear":1482,"Ġsort":1483,"Ġcountry":1484,"Ġart":1485,"Th":1486,"ments":1487,"sh":1488,"At":1489,"ized":1490,"Ġ197":1491,"Ġgener":1492,"Ġhimself":1493,"Ġwoman":1494,"ĠSp":1495,"ows":1496,"ĠKing":1497,"br":1498,"Ġgave":1499,"Ġsk":1500,"Ġwalk":1501,"Ġeyes":1502,"Ġmorning":1503,"Ġeas":1504,"For":1505,"Ġyet":1506,"Mm":1507,"app":1508,"rop":1509,"Ġdeath":1510,"ined":1511,"ĠWe":1512,"Ġcol":1513,"Ġfil":1514,"Ġhaving":1515,"Ġimportant":1516,"Uh":1517,"uss":1518,"Ġ7":1519,"ery":1520,"dy":1521,"Ġlead":1522,"ize":1523,"yeah":1524,"lish":1525,"Ġheart":1526,"Ġmil":1527,"ats":1528,"Ġtri":1529,"Ġdead":1530,"Ġalready":1531,"Ġstate":1532,"Ġ8":1533,"Ġpower":1534,"As":1535,"ex":1536,"Ġasked":1537,"Ġknew":1538,"?\"":1539,"ives":1540,"Did":1541,"Thank":1542,"Ġans":1543,"ĠAt":1544,"Ġhalf":1545,"20":1546,"Ġhour":1547,"ta":1548,"Al":1549,"aughter":1550,"Ġhold":1551,"most":1552,"Ġgame":1553,"Ġwrong":1554,"ĠPr":1555,"Ġcase":1556,"OU":1557,"ues":1558,"Ġplan":1559,"Right":1560,"Ġsaying":1561,"gt":1562,"Ġpay":1563,"Good":1564,"ĠSo":1565,"velop":1566,"ison":1567,"aut":1568,"wards":1569,"ted":1570,".âĢĿ":1571,"fl":1572,"Ġmod":1573,"Ġair":1574,"ĠGerm":1575,"ched":1576,"Ġ10":1577,"aby":1578,"Ġupon":1579,"Ġref":1580,"Ġeat":1581,"Ġremember":1582,"ober":1583,"Ġtalking":1584,"do":1585,"Ġmeans":1586,"ĠHow":1587,"Ġprob":1588,"Ġborn":1589,"Ġcur":1590,"Ġbegan":1591,"Ġsoon":1592,"not":1593,"Ġsong":1594,"ying":1595,"âĢĵ":1596,"Ġfore":1597,"ically":1598,"ĠSc":1599,"Ġsystem":1600,"Ġshall":1601,"Ġ_":1602,"ony":1603,"Ġstarted":1604,"Ġfull":1605,"ains":1606,"Ġmonth":1607,"Ġtrying":1608,"ural":1609,"Ġrecord":1610,"Ġreturn":1611,"Ġpri":1612,"ages":1613,"reen":1614,"Ġri":1615,"Ġgovern":1616,"Ġgi":1617,"Ġmill":1618,"ron":1619,"Ġlaw":1620,"ided":1621,"Ġins":1622,"ered":1623,"now":1624,"Ġ9":1625,"Ġhist":1626,"Ġoffic":1627,"ĠBe":1628,"Ġmiss":1629,"leased":1630,"Ġalong":1631,"Ġdoor":1632,"Ġoften":1633,"Ġequ":1634,"Ġbring":1635,"Go":1636,"ney":1637,"ature":1638,"ai":1639,"ility":1640,"ering":1641,"ĠCl":1642,"Ġidea":1643,"Ġround":1644,"Ġgone":1645,"Ġwife":1646,"Ġexpl":1647,"Ġhur":1648,"Ġfight":1649,"ĠThere":1650,"Can":1651,"Ġbrother":1652,"Ġwind":1653,"Ġcertain":1654,"Ġprom":1655,"fess":1656,"med":1657,"rict":1658,"ĠAll":1659,"Ġ196":1660,"ately":1661,"ON":1662,"Ġprov":1663,"vice":1664,"Ġwin":1665,"Ġhappen":1666,"cle":1667,"Ġchange":1668,"ern":1669,"Ġfoot":1670,"pped":1671,"ush":1672,"Ġjo":1673,"ĠCar":1674,"amed":1675,"ured":1676,"Get":1677,"Ġhands":1678,"Ġline":1679,"Ġplayed":1680,"ĠChrist":1681,"Ġfell":1682,"Ġsent":1683,"Ġbas":1684,"âĢľ":1685,"ional":1686,"Ġ15":1687,"AT":1688,"ĠGr":1689,"Ġlear":1690,"Ġfuck":1691,"Ġpretty":1692,"Ġsound":1693,"aken":1694,"Ġty":1695,"ides":1696,"Ġcontin":1697,"ges":1698,"eb":1699,"idd":1700,"ĠMay":1701,"Ġmatter":1702,"Ġgoes":1703,"One":1704,"Ġless":1705,"Ġable":1706,"uro":1707,"iter":1708,"Ġstory":1709,"ump":1710,"Ġcreat":1711,"Ġorder":1712,"Ġ[":1713,"ĠCount":1714,"mor":1715,"Ġspeak":1716,"Ġpar":1717,"Ġ17":1718,"Ġbed":1719,"pend":1720,"Ġtop":1721,"AR":1722,"Ġmoment":1723,"pr":1724,"Ġproblem":1725,"Ġ...":1726,"Ġdevelop":1727,"Ġwomen":1728,"Ġarea":1729,"anu":1730,"Ġdet":1731,"ared":1732,"ik":1733,"ices":1734,"Ġsleep":1735,"Your":1736,"rigin":1737,"rence":1738,"Ġwanna":1739,"Ġsomeone":1740,"Ġclass":1741,"iam":1742,"Ġes":1743,"Ġlost":1744,"ey":1745,"apan":1746,"ĠPro":1747,"Ġdef":1748,"arch":1749,"oon":1750,"Ġwasn":1751,"ilt":1752,"Er":1753,"Ġfall":1754,"Ġwatch":1755,"Ġleg":1756,"Ġpartic":1757,"ained":1758,"Ġmaking":1759,"ead":1760,"Ġbusiness":1761,"ract":1762,"Here":1763,"ler":1764,"An":1765,"Ġpolit":1766,"Ġterm":1767,"Ġlarge":1768,"Ġshort":1769,"con":1770,"aces":1771,"!\"":1772,"ĠBl":1773,"Ġfriends":1774,"Ġcomes":1775,"Ġpat":1776,"ĠCon":1777,"Ġyourself":1778,"ians":1779,"well":1780,"Ġprobably":1781,"ement":1782,"ole":1783,"how":1784,"Ġhat":1785,"Ġguys":1786,"ample":1787,"Ġpresent":1788,"aper":1789,"Ġexper":1790,"Ġbeaut":1791,"Ġdrink":1792,"ĠOh":1793,"che":1794,"Ġlooked":1795,"ches":1796,"Ġtrue":1797,"ĠEnglish":1798,"Ġpain":1799,"ama":1800,"cri":1801,"Ġmark":1802,"ulation":1803,"Ġcontro":1804,"Ġbecome":1805,"iver":1806,"ention":1807,"lt":1808,"OR":1809,"Ġwond":1810,"Ġworking":1811,"angu":1812,"Ġbody":1813,"Ġprot":1814,"Ġweek":1815,"ator":1816,"gy":1817,"Ġdad":1818,"reet":1819,"Ġsqu":1820,"Ġpur":1821,"ĠBrit":1822,"Ġfine":1823,"used":1824,"wer":1825,"ley":1826,"ĠOn":1827,"Ġago":1828,"Ġanim":1829,"Ġdiv":1830,"Ġblood":1831,"ient":1832,"ĠThat":1833,"Ġsol":1834,"Ġalmost":1835,"ĠJapan":1836,"Ġpie":1837,"Ġship":1838,"ello":1839,"arr":1840,"Ġwouldn":1841,"Ġcor":1842,"Ġage":1843,"Ġcommun":1844,"gram":1845,"ĠUniversity":1846,"May":1847,"ĠHis":1848,"ĠâĢĵ":1849,"eth":1850,"arent":1851,"Ġhope":1852,"mp":1853,"co":1854,"eter":1855,"Ġ194":1856,"Ġgroup":1857,"Ġorigin":1858,"Ġbaby":1859,"Ġste":1860,"Ġearly":1861,"Ġcut":1862,"Ġpos":1863,"ĠFrance":1864,"Ġfree":1865,"enty":1866,"ouble":1867,"Because":1868,"Re":1869,"hind":1870,"anuary":1871,"Ġmovie":1872,"Ġdeal":1873,"ards":1874,"Ġvis":1875,"Ġgiven":1876,"Ġhaven":1877,"To":1878,"umb":1879,"orld":1880,"Ġconst":1881,"rap":1882,"Ġoh":1883,"ief":1884,"urch":1885,"ode":1886,"Ġready":1887,"ajor":1888,"Ġpick":1889,"ĠYes":1890,"uly":1891,"Ġocc":1892,"ze":1893,"ept":1894,"ety":1895,"Ġhor":1896,"Ġswe":1897,"Ġopp":1898,"ĠFor":1899,"Ġcomple":1900,"Ġspec":1901,"come":1902,"Ġreleased":1903,"Ġquestion":1904,"Ġlate":1905,"Ġhon":1906,"Ġmyself":1907,"Ġvar":1908,"Ġter":1909,"Ġoper":1910,"ccess":1911,"Âł":1912,"Ġbreak":1913,"oman":1914,"Ġclear":1915,"Ġbegin":1916,"Ġaw":1917,"Ġbrought":1918,"Ġnews":1919,"Ġstuff":1920,"ster":1921,"ĠWar":1922,"ys":1923,"Ġrece":1924,"Ġ16":1925,"Ġclose":1926,"Ġleast":1927,"ese":1928,"Ġkilled":1929,"Ġfood":1930,"Ġfire":1931,"ĠCan":1932,"haps":1933,"iful":1934,"Ġ``":1935,"Ġblack":1936,"ĠJanuary":1937,"ĠCounty":1938,"Ġdaughter":1939,"ived":1940,"Ġ12":1941,"elt":1942,"selves":1943,"ino":1944,"ĠPres":1945,"els":1946,"alth":1947,"Ġstation":1948,"Ġwords":1949,"Ġtaken":1950,"Ġeight":1951,"Ġmaybe":1952,"eor":1953,"mm":1954,"Ġreason":1955,"Ġgovernment":1956,"Ġking":1957,"Ġexample":1958,"ĠWhen":1959,"ĠFran":1960,"Ġten":1961,"Ġran":1962,"ĠYeah":1963,"Ġguess":1964,"ĠLe":1965,"iting":1966,"Ġpast":1967,"Ġsever":1968,"oke":1969,"Ġ195":1970,"Ġcompany":1971,"Ġpublic":1972,"ĠFl":1973,"bo":1974,"cent":1975,"born":1976,"ĠYork":1977,"ES":1978,"Ġbehind":1979,"ology":1980,"Every":1981,"ped":1982,"Mr":1983,"ĠSouth":1984,"Please":1985,"Ġfront":1986,"Ġconf":1987,"Ġlangu":1988,"ert":1989,"hich":1990,"lev":1991,"fic":1992,"Ġorgan":1993,"Ġhappy":1994,"ality":1995,"Ġmarried":1996,"Ġmillion":1997,"ude":1998,"vious":1999,"for":2000,"eng":2001,"Ġball":2002,"utes":2003,"Ġdog":2004,"head":2005,"ones":2006,"Ġseveral":2007,"omp":2008,"Ġallow":2009,"Ġwhite":2010,"iqu":2011,"Ġinde":2012,"osp":2013,"men":2014,"Ġmakes":2015,"Ġnorth":2016,"Ġrather":2017,"Ġtaking":2018,"aced":2019,"gue":2020,"undred":2021,"oud":2022,"bum":2023,"urope":2024,"Ġsold":2025,"Ġvo":2026,"Ġcharac":2027,",âĢĿ":2028,"ĠAust":2029,"bs":2030,"can":2031,"Ġpict":2032,"la":2033,"erv":2034,"Ġalone":2035,"Ġval":2036,"Ġprogram":2037,"bed":2038,"ĠâĻª":2039,"Ġinform":2040,"Ġeither":2041,"Ġest":2042,"itten":2043,"Ġve":2044,"rench":2045,"Ġdesign":2046,"Ġhuman":2047,"pri":2048,"ium":2049,"Ġreport":2050,"Ġeng":2051,"ience":2052,"ament":2053,"cient":2054,"Ah":2055,"Ġhot":2056,"Ġexc":2057,"there":2058,"Ġ&":2059,"Ġseries":2060,"Ġturned":2061,"Ġtre":2062,"ently":2063,"ully":2064,"ĠCal":2065,"ency":2066,"Ġhell":2067,"Ġstrong":2068,"Ġattack":2069,"atic":2070,"cha":2071,"oint":2072,"oor":2073,"ĠTr":2074,"Ġsat":2075,"ĠWorld":2076,"huh":2077,"Ġliving":2078,"Ġsupport":2079,"band":2080,"enn":2081,"Ġann":2082,"Ġparty":2083,"ford":2084,"Ġquick":2085,"Ġsuccess":2086,"Ġthinking":2087,"hamp":2088,"ots":2089,"Ġcommon":2090,"Ġcou":2091,"Some":2092,"Ġ0":2093,"Ġothers":2094,"ĠPl":2095,"Ġcouldn":2096,"Ġresp":2097,"Sh":2098,"Ġlay":2099,"Ġred":2100,"Ġtrain":2101,"ĠMarch":2102,"ĠAd":2103,"Ġdem":2104,"Ġfig":2105,"Ġhundred":2106,"Ġfilm":2107,"ĠEurope":2108,"ring":2109,"unk":2110,"Ġadm":2111,"idge":2112,"ĠComm":2113,"Ġbar":2114,"bit":2115,"ffect":2116,"over":2117,"actly":2118,"Ġdel":2119,"Ġalbum":2120,"hern":2121,"Ġdream":2122,"Ġgrow":2123,"oub":2124,"Ġsum":2125,"Ġnamed":2126,"Ex":2127,"ĠMrs":2128,"go":2129,"ĠSh":2130,"itting":2131,"ior":2132,"Ġband":2133,"eptember":2134,"range":2135,"sy":2136,"Ġlooks":2137,"Ġsometimes":2138,"LL":2139,"ĠMan":2140,"Ġtou":2141,"Ġstru":2142,"Ġheld":2143,"Ġ$":2144,"ĠBritish":2145,"Ġcheck":2146,"raz":2147,"Ġwithin":2148,"ĠThen":2149,"iving":2150,"wo":2151,"Ġhistory":2152,"par":2153,"Ġcost":2154,"Ġmess":2155,"Ġtem":2156,"Ġwants":2157,"Ġlisten":2158,"unt":2159,"Ġbeautiful":2160,"Ġthird":2161,"ĠNorth":2162,"Ġadv":2163,"Ġsouth":2164,"Ġexpect":2165,"Ġhit":2166,"Ġvill":2167,"Ġbuilt":2168,"aim":2169,"Ġce":2170,"Ġminute":2171,"rie":2172,"ĠPar":2173,"ĠAb":2174,"augh":2175,"ma":2176,"Ġperform":2177,"Ġz":2178,"Ġusually":2179,"Ġroad":2180,"Ġresult":2181,"ĠOr":2182,"estern":2183,"fully":2184,"Ġinside":2185,"ĠTHE":2186,"ugust":2187,"ĠGo":2188,"Ġspecial":2189,"ĠSe":2190,"Or":2191,"ider":2192,"EN":2193,"ondon":2194,"Ġthank":2195,"Ch":2196,"Ġrock":2197,"Ġappro":2198,"Ġrequ":2199,"Ġgold":2200,"Ġsingle":2201,"ege":2202,"Ġpoor":2203,"dom":2204,"Ġra":2205,"Ġmemb":2206,"ille":2207,"Ġacross":2208,"oad":2209,"ination":2210,"ls":2211,"Ġav":2212,"Ġrev":2213,"Ġmonths":2214,"Ġseason":2215,"ĠJuly":2216,"ffic":2217,"Ġminutes":2218,"Ġdear":2219,"look":2220,"ĠSeptember":2221,"ming":2222,"ounds":2223,"Hello":2224,"Ġplaying":2225,"Ġpossible":2226,"Ġcir":2227,"Ġstat":2228,"ald":2229,"Ġoutside":2230,"Have":2231,"ĠWill":2232,"Ġgotta":2233,"ousand":2234,"ana":2235,"Ġteac":2236,"ĠPresident":2237,"resent":2238,"Ġusing":2239,"Ġbuy":2240,"pril":2241,"Ġrepl":2242,"Ġincluding":2243,"Ġ193":2244,"ask":2245,"Ġtot":2246,"Ġbuilding":2247,"read":2248,"chn":2249,"Ġeffect":2250,"ĠFrench":2251,"ued":2252,"Any":2253,"Ġelect":2254,"Ġwonder":2255,"ĠChar":2256,"Ġappear":2257,"Ġsend":2258,"Ġ*":2259,"ĠX":2260,"Ġtried":2261,"usband":2262,"anger":2263,"Ġdepart":2264,"hile":2265,"fort":2266,"Ġsil":2267,"Ġcop":2268,"overed":2269,"Ġamong":2270,"ĠMin":2271,"ctober":2272,"ales":2273,"Ġcho":2274,"Ġ11":2275,"morrow":2276,"ached":2277,"Ġconcer":2278,"Ġlocal":2279,"itch":2280,"ĠSha":2281,"irth":2282,"Ġcamp":2283,"Ġmembers":2284,"II":2285,"ases":2286,"Ġhair":2287,"Ġlived":2288,"ressed":2289,"Ġpopulation":2290,"like":2291,"Ġmajor":2292,"Ġcre":2293,"ĠJune":2294,"||":2295,"Ġmag":2296,"Ġdest":2297,"Ġdark":2298,"though":2299,"ĠDo":2300,"Ġprofess":2301,"Ġoffice":2302,"ĠGeor":2303,"Ġfollowing":2304,"attle":2305,"Ġmur":2306,"cember":2307,"uthor":2308,"Ġtest":2309,"een":2310,"Ġsweet":2311,"Ġsn":2312,"yn":2313,"Ġvide":2314,"Ġlevel":2315,"Ġdie":2316,"After":2317,"ories":2318,"unch":2319,"gest":2320,"Ġwritten":2321,"aul":2322,"ĠLondon":2323,"Ġcond":2324,"Ġfelt":2325,"Ġanyone":2326,"ĠNational":2327,"cing":2328,"ĠAf":2329,"ovember":2330,"Ġworry":2331,"more":2332,"ĠJo":2333,"iddle":2334,"ĠAugust":2335,"eared":2336,"ified":2337,"Ġabs":2338,"key":2339,"Ġprocess":2340,"bers":2341,"Ġgun":2342,"amb":2343,"Ġgets":2344,"ĠMiss":2345,"Ġsea":2346,"Ġhusband":2347,"Ġiss":2348,"Maybe":2349,"oved":2350,"ĠEngland":2351,"Ġanswer":2352,"rit":2353,"RE":2354,"soci":2355,"Ġthousand":2356,"Ġbird":2357,"urs":2358,"Ġ13":2359,"levision":2360,"iod":2361,"ĠApril":2362,"Ġview":2363,"With":2364,"Ġtreat":2365,"Ġformer":2366,"Ġworked":2367,"Î¿":2368,"Ġmember":2369,"ĠCha":2370,"Ġtill":2371,"ruary":2372,"ebruary":2373,"Ġparticular":2374,"Ġvoice":2375,"itions":2376,"work":2377,"Ġseven":2378,"Ġ14":2379,"aint":2380,"ĠRep":2381,"ox":2382,"Ġcomplete":2383,"Ġsun":2384,"ĠHar":2385,"Ġlanguage":2386,"Ġfav":2387,"iron":2388,"uk":2389,"Ġdefe":2390,"Ġworks":2391,"Ġnat":2392,"Ġbased":2393,"Ġones":2394,"ĠOctober":2395,"Ġfa":2396,"raid":2397,"Ġtable":2398,"Ġeveryone":2399,"ĠCent":2400,"Ġcannot":2401,"Ġstra":2402,"Ġchance":2403,"....":2404,"10":2405,"Ġproper":2406,"Ġcentury":2407,"reed":2408,"ĠDecember":2409,"Ġwrote":2410,"ĠCity":2411,"ĠItal":2412,"fer":2413,"airs":2414,"Ġpull":2415,"Of":2416,"ĠCap":2417,"Ġinvol":2418,"Ġcross":2419,"Ġwhether":2420,"ĠBar":2421,"ored":2422,"Ġpolice":2423,"Ġhours":2424,"Ġcry":2425,"asure":2426,"Ġwear":2427,"Ġmer":2428,"rodu":2429,"aged":2430,"ays":2431,"Ġdi":2432,"ĠWest":2433,"Ġwish":2434,"ĠHer":2435,"ĠNovember":2436,"Ġcouple":2437,"Ġforg":2438,"TH":2439,"Ġwrite":2440,"Ġeasy":2441,"Ġdam":2442,"Ġpract":2443,"Ġtomorrow":2444,"ĠIf":2445,"Ġseems":2446,"Ġinformation":2447,"com":2448,"Ġbox":2449,"Ġgra":2450,"Ġdiffic":2451,"Ġclean":2452,"por":2453,"onight":2454,"Ġstar":2455,"Ġ30":2456,"ĠJack":2457,"Ġboys":2458,"room":2459,"Ġlow":2460,"Ġknows":2461,"Ġprotect":2462,"ĠMic":2463,"Ġfur":2464,"ĠCol":2465,"Ġpaper":2466,"Ġla":2467,"ternational":2468,"Ġlives":2469,"Ġ2013":2470,"Ġevent":2471,"ĠMe":2472,"Ġsense":2473,"ĠGu":2474,"ien":2475,"Ġwall":2476,"iding":2477,"Ġcurrent":2478,"Ġtrad":2479,"Ġground":2480,"ĠGerman":2481,"Ġservice":2482,"ĠPh":2483,"Ġhowever":2484,"Ġchanged":2485,"Ġpost":2486,"ĠAm":2487,"Ġfif":2488,"hys":2489,"Ġcold":2490,"Ġcal":2491,"Ġfeet":2492,"yr":2493,"Ġdep":2494,"ĠEd":2495,"ĠDan":2496,"cially":2497,"idence":2498,"ĠAfter":2499,"ĠFebruary":2500,"ourn":2501,"Ġmoved":2502,"Ġmine":2503,"Ġfast":2504,"ĠAmerica":2505,"Take":2506,"Ġru":2507,"Ġrad":2508,"ising":2509,"cil":2510,"Ġlad":2511,"rog":2512,"ogn":2513,"avy":2514,"oose":2515,"this":2516,"Ġgrand":2517,"Ġcompet":2518,"she":2519,"Ġisland":2520,"itive":2521,"Ġfield":2522,"Ġlonger":2523,"ata":2524,"Ġparent":2525,"ration":2526,"Ġsca":2527,"Ġphone":2528,"irty":2529,"uri":2530,"Ġbirth":2531,"ances":2532,"Ġsupposed":2533,"Ġfail":2534,"Ġstep":2535,"Ġexactly":2536,"Ġtwenty":2537,"Ġcommune":2538,"Ġsuper":2539,"Ġ202":2540,"IS":2541,"ivil":2542,"Ġcontrol":2543,"Ġdraw":2544,"Ġdro":2545,"Ġhig":2546,"ĠIndian":2547,"kes":2548,"Ġill":2549,"ida":2550,"ument":2551,"Ġcareer":2552,"Ġ2010":2553,"18":2554,"Ar":2555,"Ġvers":2556,"Ġlady":2557,"Ġperiod":2558,"irgin":2559,"Ġfair":2560,"Ġafraid":2561,"ift":2562,"Ġregion":2563,"Ġpriv":2564,"Ġthemselves":2565,"ization":2566,"who":2567,"IC":2568,"ording":2569,"Ġshot":2570,"Ġcharacter":2571,"stit":2572,"His":2573,"ula":2574,"Ġhurt":2575,"hael":2576,"cience":2577,"Ġtruth":2578,"See":2579,"emy":2580,"Ġincre":2581,"Ġtit":2582,"Ġbott":2583,"ĠOne":2584,"rem":2585,"Ġgeneral":2586,"ended":2587,"LA":2588,"Like":2589,"Ġsister":2590,"ĠTe":2591,"uation":2592,"Ġnational":2593,"irt":2594,"Ġrelig":2595,"Ġmot":2596,"Ġprop":2597,"hard":2598,"entle":2599,"Ġdin":2600,"Ġkept":2601,"col":2602,"with":2603,"Ġsex":2604,"Ġneeds":2605,"ission":2606,"Ġtelevision":2607,"ption":2608,"Ġdirect":2609,"Ġtrouble":2610,"Ġreceived":2611,"Ġkids":2612,"Ġauthor":2613,"Ġperhaps":2614,"Wait":2615,"ada":2616,"Ġrunning":2617,"Ġshoot":2618,"eal":2619,"ĠSw":2620,"Ġletter":2621,"Ġdescri":2622,"ipp":2623,"Ġpicture":2624,"ilar":2625,"Ġvideo":2626,"eople":2627,"Ġdeep":2628,"ĠAfric":2629,"ffe":2630,"owers":2631,"inal":2632,"Ġpopular":2633,"conom":2634,"lex":2635,"ĠDist":2636,"lant":2637,"Ġcourt":2638,"Ġfootball":2639,"Ġdev":2640,"Ġtechn":2641,"Ġtonight":2642,"ops":2643,"ED":2644,"atter":2645,"Ġ25":2646,"ray":2647,"Ġaccept":2648,"Ġpubl":2649,"Ġdoctor":2650,"ĠRoman":2651,"Ġarri":2652,"Ġspace":2653,"Ġeduc":2654,"ĠSer":2655,"Ġconne":2656,"Ġcook":2657,"Ġinfl":2658,"Ġforget":2659,"Ġentire":2660,"they":2661,"Ġtree":2662,"joy":2663,"Ġabove":2664,"val":2665,"Ġcat":2666,"Ġtype":2667,"ding":2668,"Ġvillage":2669,"eder":2670,"illy":2671,"Ġserious":2672,"Ġinstead":2673,"Ġseemed":2674,"ills":2675,"ggest":2676,"Ġmount":2677,"Ġclot":2678,"Ġinclude":2679,"Ġprin":2680,"bur":2681,"uz":2682,"Ġsett":2683,"iol":2684,"Ġhuh":2685,"ĠDr":2686,"Ġcos":2687,"ĠDon":2688,"Ġlim":2689,"hel":2690,"cture":2691,"Ġfly":2692,"see":2693,"Ġclub":2694,"ging":2695,"Ġtouch":2696,"Ġwaiting":2697,"Ġwhatever":2698,"Ġstre":2699,"Ġcollect":2700,"Ġcreated":2701,"Ġpress":2702,"alt":2703,"Ġperfect":2704,"ĠWell":2705,"Ġfut":2706,"ĠMc":2707,"ror":2708,"Ġnorm":2709,"Ġcountries":2710,"lect":2711,"olute":2712,"Ġrespect":2713,"Ġwood":2714,"oul":2715,"Ġlab":2716,"Ġdepartment":2717,"Ġcult":2718,"Ġport":2719,"Ġluck":2720,"Ġhy":2721,"Ġplayer":2722,"Erm":2723,"Ġposition":2724,"Ġitself":2725,"reg":2726,"Ġpiece":2727,"ĠHowever":2728,"ĠYOU":2729,"Ġep":2730,"GH":2731,"hampions":2732,"Thanks":2733,"ky":2734,"ken":2735,"ference":2736,"Ġhorse":2737,"ospital":2738,"acy":2739,"Ġrul":2740,"Ġexcept":2741,"avid":2742,"ially":2743,"Ġfucking":2744,"CH":2745,"Ġgod":2746,"olution":2747,"ĠIll":2748,"Ġsuggest":2749,"ĠĠĠĠĠĠĠĠ":2750,"dden":2751,"Ġtrust":2752,"Ġdue":2753,"Ġinvest":2754,"Ġrepresent":2755,"ribut":2756,"Ġaren":2757,"Ġproject":2758,"Ġtakes":2759,"Ġsomebody":2760,"Ġamount":2761,"ĠLea":2762,"Ġeverybody":2763,"Ġple":2764,"omin":2765,"Ġmist":2766,"Ġfamous":2767,"Ġgirls":2768,"Ġdifficult":2769,"Ġgen":2770,"sp":2771,"ĠEx":2772,"Ġcomput":2773,"Ġled":2774,"Ġbear":2775,"ĠMy":2776,"ĠTom":2777,"rian":2778,"Ġang":2779,"king":2780,"ĠVirgin":2781,"Ġcrit":2782,"Ġweeks":2783,"ĠDistrict":2784,"ev":2785,"Ġsudden":2786,"ĠTH":2787,"Ġdecided":2788,"light":2789,"rey":2790,"Ġrecogn":2791,"Ġcapital":2792,"Ġstraight":2793,"ĠHouse":2794,"ĠState":2795,"ara":2796,"Ġworth":2797,"sc":2798,"Ġ]":2799,"pecially":2800,"Sorry":2801,"ĠEm":2802,"Ġsurpr":2803,"Ġcoun":2804,"Ġrole":2805,"Ġproduct":2806,"off":2807,"Ġmult":2808,"ades":2809,"Ġphot":2810,"ĠPart":2811,"ĠWh":2812,"Ġserved":2813,"Ġlearn":2814,"ĠAustral":2815,"Ġblue":2816,"razy":2817,"Ġhang":2818,"ĠThese":2819,"Tell":2820,"Ġfeeling":2821,"ashing":2822,"Ġstood":2823,"Ġsell":2824,"Ġ24":2825,"ival":2826,"eneral":2827,"Ġshit":2828,"Ġsafe":2829,"AS":2830,"Ġpen":2831,"Ġfuture":2832,"Ġcast":2833,"Ġgames":2834,"ĠGeorge":2835,"aur":2836,"itary":2837,"amer":2838,"Ġfunny":2839,"15":2840,"Ġda":2841,"ĠUS":2842,"time":2843,"su":2844,"Ġhealth":2845,"Ġtelling":2846,"Ġvict":2847,"ĠSome":2848,"Ġcarry":2849,"Ġevening":2850,"Ġpassed":2851,"riage":2852,"Ġslow":2853,"omb":2854,"Ġmeant":2855,"Ġexist":2856,"Ġeye":2857,"Un":2858,"Stop":2859,"oes":2860,"ĠSy":2861,"ĠPeter":2862,"ĠLord":2863,"Ġbooks":2864,"Ġproblems":2865,"Ġcried":2866,"Ġnine":2867,"Ġsecret":2868,"Ġdoll":2869,"Ġstri":2870,"empt":2871,"Ġcover":2872,"Ġearth":2873,"Ġver":2874,"Ġfill":2875,"Ġfurther":2876,"was":2877,"Ġimag":2878,"ression":2879,"hank":2880,"Ġtrack":2881,"Ġet":2882,"ication":2883,"Ġjud":2884,"Ġcounty":2885,"Ġpolic":2886,"Ġahead":2887,"ceed":2888,"ĠNot":2889,"reme":2890,"Ġmatch":2891,"Ġ192":2892,"ciety":2893,"Ġengine":2894,"Ġbene":2895,"teen":2896,"Ġdoub":2897,"These":2898,"Ġfix":2899,"Ġgreen":2900,"iment":2901,"Ġsocial":2902,"Ġain":2903,"Ġgentle":2904,"Ġspir":2905,"Ġserv":2906,"Ġmeeting":2907,"Ġfigure":2908,"Ġphys":2909,"Ġcomb":2910,"Ġanyway":2911,"ocr":2912,"Ġrelations":2913,"inois":2914,"viously":2915,"Ġide":2916,"Ġpresident":2917,"Ġdrive":2918,"US":2919,"lled":2920,"ander":2921,"Ġterri":2922,"rug":2923,"Cl":2924,"Ġmis":2925,"Ġparents":2926,"ping":2927,"Ġsus":2928,"Ġfamil":2929,"TER":2930,"Ġsubject":2931,"17":2932,"chan":2933,"ica":2934,"ĠIndia":2935,"Ġreturned":2936,"yle":2937,"Ġcompl":2938,"âĢĶ":2939,"Ġfollowed":2940,"Hi":2941,"Ġherself":2942,"Ġsail":2943,"ploy":2944,"Ġopened":2945,"ĠQue":2946,"bor":2947,"Ġhappens":2948,"Ġcatch":2949,"Ġnon":2950,"ĠGermany":2951,"Ġcirc":2952,"Ġmouth":2953,"Ġrain":2954,"Ġ2011":2955,"Ġfear":2956,"ician":2957,"ager":2958,"Ġchair":2959,"Ġanimals":2960,"LE":2961,"pes":2962,"isten":2963,"Ġprison":2964,"Ġdistrict":2965,"Ġcool":2966,"Ġcrazy":2967,"Ġrese":2968,"Ġsave":2969,"Ġspecies":2970,"Ġdanger":2971,"arth":2972,"Ġobject":2973,"Ġviol":2974,"ĠJapanese":2975,"Ġpot":2976,"Ġ2006":2977,"Will":2978,"Ġmass":2979,"Ġhoney":2980,"ĠColl":2981,"Ġteacher":2982,"oly":2983,"hem":2984,"enry":2985,"Me":2986,"aff":2987,"ĠGood":2988,"Ġenjoy":2989,"ĠRepublic":2990,"12":2991,"14":2992,"Ne":2993,"medi":2994,"Tr":2995,"Ġris":2996,"ĠJames":2997,"ĠSchool":2998,"Ġring":2999,"ĠIsland":3000,"ĠPark":3001,"ĠEl":3002,"Ġparts":3003,"Ġhost":3004,"ĠRuss":3005,"Ġ2012":3006,"Ġmoving":3007,"Ġhop":3008,"Ġener":3009,"Ġbull":3010,"Ġneg":3011,"Ġbecom":3012,"Ġant":3013,"wered":3014,"Ġsick":3015,"raph":3016,"Ġarm":3017,"ked":3018,"Ġpal":3019,"Ġsimilar":3020,"Ġbag":3021,"roy":3022,"Ġwhom":3023,"Ġ100":3024,"cher":3025,"Ġeconom":3026,"Ġforce":3027,"Ġlie":3028,"Ġcause":3029,"night":3030,"inite":3031,"erry":3032,"Ġfish":3033,"Ġbeginning":3034,"Ġestab":3035,"itted":3036,"Ġcertainly":3037,"oe":3038,"Ġburn":3039,"Ġsepar":3040,"ĠWilliam":3041,"ĠVirginia":3042,"ishing":3043,"Ġmiddle":3044,"ĠHigh":3045,"aven":3046,"Ġstick":3047,"OM":3048,"Ġquickly":3049,"Ġshar":3050,"ĠEast":3051,"ĠIllinois":3052,"ett":3053,"Ġplaces":3054,"Ġwhose":3055,"cast":3056,"Ġclos":3057,"Ġspend":3058,"Ġchurch":3059,"Ġpaid":3060,"Ġbeat":3061,"ples":3062,"Ġsoft":3063,"Ġthrow":3064,"Ġsitting":3065,"Ġfinal":3066,"Ġfinished":3067,"Ġinteresting":3068,"ires":3069,"itor":3070,"Ġmad":3071,"Ġfeat":3072,"Ġfloor":3073,"aha":3074,"nel":3075,"Ġtowards":3076,"imate":3077,"ume":3078,"pha":3079,"Ġmater":3080,"Ġkiss":3081,"Give":3082,"ply":3083,"Ġquestions":3084,"iforn":3085,"iers":3086,"uge":3087,"uty":3088,"Ġvol":3089,"_,":3090,"ĠGl":3091,"Ġoriginal":3092,"âĢİ":3093,"Ġannoun":3094,"Ġnecess":3095,"Ġident":3096,"Ġinf":3097,"Ġactiv":3098,"Ġgiving":3099,"Ġshut":3100,"Ġstreet":3101,"ograp":3102,"Ġdisapp":3103,"Ġleaving":3104,"Ġfre":3105,"hips":3106,"ifornia":3107,"line":3108,"iny":3109,"Ġmention":3110,"Mar":3111,"Ġself":3112,"ĠRic":3113,".,":3114,"Ġalright":3115,"Ġquiet":3116,"EA":3117,"Ġbreat":3118,"Ġpark":3119,"ĠMary":3120,"Ġstudents":3121,"ville":3122,"Ġtotal":3123,"Ġlose":3124,"Ġ(\"":3125,"itional":3126,"Ġcorn":3127,"ĠPol":3128,"Ġpolitical":3129,"OK":3130,"rel":3131,"abad":3132,"Ġcommunity":3133,"Ġrail":3134,"ivid":3135,"By":3136,"Even":3137,"Bl":3138,"Ġreached":3139,"ĠWhy":3140,"ourt":3141,"Ġsuppose":3142,"Ġterms":3143,"Ġbill":3144,"De":3145,"rill":3146,"Ġgrad":3147,"Ġbelong":3148,"Ġmodern":3149,"ĠFlor":3150,"Somet":3151,"ĠCor":3152,"ka":3153,"icated":3154,"ĠSu":3155,"ĠTO":3156,"inger":3157,"irm":3158,"ctions":3159,"Ġways":3160,"Ġ#":3161,"Ġforward":3162,"Ġforest":3163,"Ġthou":3164,"road":3165,"Ġum":3166,"orts":3167,"oyal":3168,"Ġaccount":3169,"ĠQu":3170,"Ġhospital":3171,"From":3172,"Ġexperience":3173,"Ġinflu":3174,"lin":3175,"aining":3176,"Ġanswered":3177,"Ġriver":3178,"Ġvarious":3179,"ensive":3180,"Ġglass":3181,"put":3182,"Ġneigh":3183,"ĠNe":3184,"Ġnumbers":3185,"Ġpublished":3186,"Ġmach":3187,"ĠRiver":3188,"Ġord":3189,"het":3190,"OW":3191,"ĠSec":3192,"inist":3193,"Ġsearch":3194,"ĠTo":3195,"ĠCalifornia":3196,"God":3197,"cious":3198,"ensus":3199,"Ġindust":3200,"face":3201,"Ġtax":3202,"Ġaut":3203,"Ġhung":3204,"ĠPhil":3205,"gar":3206,"ena":3207,"Ġnin":3208,"Ġrespons":3209,"Ġegg":3210,"Ġanymore":3211,"AM":3212,"ams":3213,"Ġmarket":3214,"Ġcivil":3215,"Ġallowed":3216,"bye":3217,"gu":3218,"Ġglad":3219,"ĠSan":3220,"Ġdepend":3221,"Ġ23":3222,"Ġintrodu":3223,"Ġclaim":3224,"Ġequal":3225,"house":3226,"ns":3227,"Ġdress":3228,"olutely":3229,"cape":3230,"which":3231,"ĠSm":3232,"af":3233,"wood":3234,"Ġlaugh":3235,"ites":3236,"Ġdiscuss":3237,"Ġbroad":3238,"Ġwindow":3239,"ĠII":3240,"Ġshows":3241,"Ġinvolved":3242,"ris":3243,"ĠLeague":3244,"ĠNow":3245,"Ġstudy":3246,"just":3247,"Ġcaught":3248,"Ġ50":3249,"13":3250,"Ġinn":3251,"Ġblock":3252,"ius":3253,"itz":3254,"action":3255,"Ġconsider":3256,"Ġnatural":3257,"Ġobs":3258,"?âĢĿ":3259,"Ġfem":3260,"Ġlocated":3261,"ruction":3262,"Ġmiles":3263,"AP":3264,"bon":3265,"hood":3266,"inary":3267,"Ġenv":3268,"Ġstore":3269,"ĠMed":3270,"olic":3271,"Ġsomewhere":3272,"Ġmommy":3273,"ĠCaptain":3274,"Ġstage":3275,"Ġstrange":3276,"Ġtravel":3277,"ortun":3278,"Ġboard":3279,"\")":3280,"Ab":3281,"Ġaud":3282,"ĠCo":3283,"olly":3284,"Ġ01":3285,"Ġmaterial":3286,"fit":3287,"had":3288,"ĠSir":3289,"Ġsad":3290,"ago":3291,"Ġ2014":3292,"ĠChurch":3293,"ength":3294,"erve":3295,"Ġsimple":3296,"ero":3297,"Ġnet":3298,"ĠTV":3299,"Ġneeded":3300,"ĠGovern":3301,"Ġclothes":3302,"IT":3303,"view":3304,"Ġalive":3305,"Ġenc":3306,"Ġgives":3307,"ĠFlorida":3308,"Ġdinner":3309,"Ġsize":3310,"Ġseat":3311,"Ġanybody":3312,"upid":3313,"ae":3314,"ĠPaul":3315,"unic":3316,"iel":3317,"amm":3318,"Ġemb":3319,"ape":3320,"Ġfinally":3321,"Ġboat":3322,"Ġvalue":3323,"Ġyours":3324,"Which":3325,"Ġvisit":3326,"ences":3327,"Ġdeg":3328,"Ġshop":3329,"ĠJust":3330,"Nothing":3331,"cuse":3332,"bl":3333,"Ġpeace":3334,"obert":3335,"Ġespecially":3336,"Ġenergy":3337,"Br":3338,"Ġapart":3339,"ils":3340,"Ġsurv":3341,"ĠMon":3342,"ĠMus":3343,"ĠĠĠĠĠĠ":3344,"ining":3345,"Ġfund":3346,"ounded":3347,"Ġx":3348,"Ġsituation":3349,"Ġfavor":3350,"Ġspent":3351,"Ġkey":3352,"Ġprivate":3353,"Ġ)":3354,"uses":3355,"ĠJim":3356,"Ġtitle":3357,"Ġconside":3358,"igg":3359,"Ġconsidered":3360,"Ġfac":3361,"Ġperm":3362,"asons":3363,"Ġnature":3364,"Ġappeared":3365,"ĠUnion":3366,"ĠLou":3367,"Ġdise":3368,"Ġplant":3369,"Ġcolor":3370,"illa":3371,"Ġjump":3372,"Ġ21":3373,"Ġarmy":3374,"iday":3375,"Ġ2007":3376,"ĠFrank":3377,"Ġadded":3378,"field":3379,"Ġgar":3380,"Ġ2016":3381,"Ġprofessional":3382,"ĠMichael":3383,"Ġwild":3384,"oups":3385,"iff":3386,"ĠEn":3387,"ears":3388,"bour":3389,"Ġbur":3390,"Ġdance":3391,"Ġgrew":3392,"udd":3393,"Ġstopped":3394,"Ġsour":3395,"Ġbought":3396,"Ġaction":3397,"Really":3398,"ria":3399,"ĠAre":3400,"cell":3401,"Ġmid":3402,"omas":3403,"ĠHey":3404,"Ġimmedi":3405,"Ġproduced":3406,"raft":3407,"Ġban":3408,"Ġdrug":3409,"Ġ190":3410,"mhm":3411,"ĠJe":3412,"ails":3413,"mon":3414,"under":3415,"Ġquar":3416,"Ġappl":3417,"van":3418,"ĠPer":3419,"Ġwriting":3420,"cul":3421,"Ġconv":3422,"Ġindeed":3423,"uel":3424,"outhern":3425,"ĠWho":3426,"Ġ26":3427,"rief":3428,"isc":3429,"Ġtea":3430,"ests":3431,"Ġpurp":3432,"Ġsummer":3433,"don":3434,"play":3435,"200":3436,"ĠDavid":3437,"tered":3438,"Ġearli":3439,"Ġextra":3440,"ĠProv":3441,"Ġbroke":3442,"50":3443,"orthern":3444,"ground":3445,"ĠChristian":3446,"ĠParty":3447,"ners":3448,"Ġfle":3449,"ators":3450,"elp":3451,"AL":3452,"ĠGree":3453,"Ġ22":3454,"iques":3455,"inct":3456,"ĠLa":3457,"ĠSen":3458,"Ġseeing":3459,"Ġattempt":3460,"Listen":3461,"hall":3462,"Ġdate":3463,"Ġstanding":3464,"rer":3465,"ellow":3466,"Ġthanks":3467,"ique":3468,"Would":3469,"Ġrout":3470,"ĠGeneral":3471,"Ġprim":3472,"Ġavail":3473,"Ġcommand":3474,"ibility":3475,"Ġdevelopment":3476,"OT":3477,"Ġrid":3478,"ĠGreat":3479,"Ġcompan":3480,"VE":3481,"ause":3482,"oid":3483,"esus":3484,"Ġliter":3485,"ĠSar":3486,"Sp":3487,"ously":3488,"Ġsimply":3489,"Ġmix":3490,"ĠDem":3491,"Pro":3492,"did":3493,"Ġcell":3494,"Ġpers":3495,"osing":3496,"apers":3497,"ises":3498,"ironment":3499,"gon":3500,"Ġnames":3501,"Ġattention":3502,"ify":3503,"Ġcollege":3504,"sych":3505,"uke":3506,"Ġredu":3507,"ĠScott":3508,"Ġhistor":3509,"Ġofficial":3510,"wise":3511,"Ġpack":3512,"str":3513,"istic":3514,"Ġwide":3515,"Ġcand":3516,"anc":3517,"gel":3518,"ively":3519,"Ġgroups":3520,"ND":3521,"yl":3522,"Ġscience":3523,"lebr":3524,"hold":3525,"Ġdaddy":3526,"Ġtend":3527,"ĠDad":3528,"Ġye":3529,"Ġdecl":3530,"board":3531,"Ġincluded":3532,"Ġsal":3533,"Ġbattle":3534,"raw":3535,"ĠOF":3536,"Ġasking":3537,"Ġlargest":3538,"Ġice":3539,"16":3540,"urity":3541,"dered":3542,"Ġopportun":3543,"ya":3544,"ability":3545,"ocked":3546,"Ġmilitary":3547,"Ġhate":3548,"Ġarms":3549,"Ġpoints":3550,"ological":3551,"Ġspirit":3552,"Ġwest":3553,"Ġsens":3554,"ĠMor":3555,"Ġdifference":3556,"Ġtour":3557,"Ġblow":3558,"hod":3559,"rect":3560,"istory":3561,"ĠOly":3562,"Ġepis":3563,"kn":3564,"Äģ":3565,"Ġbeha":3566,"Ġ2009":3567,"Ġindivid":3568,"Ġdestroy":3569,"Ġcompletely":3570,"Ġalthough":3571,"que":3572,"Ġcarried":3573,"Ġdoubt":3574,"Sure":3575,"Ġloved":3576,"Ġspeed":3577,"Ġmurder":3578,"ĠCong":3579,"Does":3580,"Ġversion":3581,"ashington":3582,"ki":3583,"Ġbow":3584,"ĠSte":3585,"Ġeducation":3586,"ĠMad":3587,"Ġpersonal":3588,"Ġcomputer":3589,"astic":3590,"Man":3591,"Ġdry":3592,"ĠKen":3593,"sociation":3594,"ĠRichard":3595,"Pl":3596,"gl":3597,"Ġtro":3598,"Ġmarriage":3599,"Ġcaptain":3600,"Ġbroken":3601,"Ġ`":3602,"alley":3603,"ĠTur":3604,"Ġcontract":3605,"Ġofficer":3606,"Ġjoined":3607,"pro":3608,"Ġ2008":3609,"Our":3610,"chie":3611,"ĠLet":3612,"Ġrefer":3613,"Ġmaster":3614,"Ġemploy":3615,"ĠComp":3616,"pper":3617,"Ġshouldn":3618,"Ġ2015":3619,"back":3620,"nes":3621,"Ġlength":3622,"Her":3623,"mas":3624,"itude":3625,"ancy":3626,"Ġpath":3627,"Ġreach":3628,"Ġplays":3629,"Ġwatching":3630,"Ġbank":3631,"Ġmeaning":3632,"terday":3633,"Ġheavy":3634,"ĠBur":3635,"ords":3636,"ĠHenry":3637,"Ġ28":3638,"ension":3639,"arden":3640,"Two":3641,"west":3642,"Ġlying":3643,"Ġbelow":3644,"ĠQueen":3645,"tr":3646,"Ġlo":3647,"antly":3648,"ĠReg":3649,"Um":3650,"ux":3651,"hest":3652,"Ġbase":3653,"Ġrich":3654,"Ġtalked":3655,"ĠPort":3656,"ĠStreet":3657,"ograph":3658,"Ġcoast":3659,"Was":3660,"Ġsight":3661,"ari":3662,"ĠRed":3663,"Ġarch":3664,"ledge":3665,"asion":3666,"Ġcapt":3667,"Ã¼":3668,"llen":3669,"ID":3670,"John":3671,"Ġeff":3672,"Ġrob":3673,"Ġshare":3674,"Ġindepend":3675,"gress":3676,"Ġfool":3677,"Ġanimal":3678,"Per":3679,"Ġplus":3680,"bert":3681,"Ġprep":3682,"Ġ2022":3683,"Ġoccur":3684,"Qu":3685,"icle":3686,"Ġfort":3687,"Ġareas":3688,"Ġ2000":3689,"Ġhappening":3690,"Ã¡":3691,"Ġbra":3692,"Ġpage":3693,"Ġnearly":3694,"Ġwat":3695,"ĠMal":3696,"orrow":3697,"ico":3698,"Ġappoint":3699,"Ġcaused":3700,"Ġimpro":3701,"ET":3702,"anish":3703,"hire":3704,"Ġaccess":3705,"Ġbud":3706,"Ġstates":3707,"rank":3708,"ĠBlack":3709,"Ġhonest":3710,"Very":3711,"Ġcensus":3712,"Ġinit":3713,"iced":3714,"iction":3715,"Ġwel":3716,"Ġsite":3717,"ĠPal":3718,"Ġaff":3719,"hampionship":3720,"ims":3721,"Dad":3722,"sec":3723,"ĠCourt":3724,"Ġfellow":3725,"Ġcelebr":3726,"Ġeast":3727,"Ġexam":3728,"Ġmanage":3729,"eep":3730,"Ġscient":3731,"ustom":3732,"Ġhigher":3733,"unicip":3734,"Gr":3735,"ĠMo":3736,"Ġ27":3737,"Ġevidence":3738,"Ġfat":3739,"iles":3740,"ĠWhere":3741,"omen":3742,"ether":3743,"Ġregard":3744,"Ġpromise":3745,"Ġnormal":3746,"Ġfamilies":3747,"ids":3748,"ĠSam":3749,"ĠBy":3750,"ĠPri":3751,"ĠOkay":3752,"Ġradio":3753,"amn":3754,"Ġwarm":3755,"Ġsuddenly":3756,"iled":3757,"30":3758,"arily":3759,"Ġstupid":3760,"ĠCome":3761,"ouses":3762,"Ġsand":3763,"icks":3764,"Ġsongs":3765,"inc":3766,"ĠAir":3767,"Ġrace":3768,"Ġmarry":3769,"Ġinterested":3770,"Ġinj":3771,"Ġdoc":3772,"Ġcoffe":3773,"Ġ40":3774,"Ġfit":3775,"Ġfoc":3776,"ĠMart":3777,"resh":3778,"za":3779,"Ġhol":3780,"Ġ2005":3781,"Ġcases":3782,"Ġscene":3783,"Ġtrees":3784,"ĠBen":3785,"osop":3786,"Ġshowed":3787,"Ġformed":3788,"Ġnor":3789,"gged":3790,"Ġdeveloped":3791,"bing":3792,"ĠIN":3793,"Ġactor":3794,"Ġcard":3795,"ĠWith":3796,"Ġmovies":3797,"11":3798,"Ġpun":3799,"Ġpray":3800,"Ġhuge":3801,"aker":3802,"Ġcontinued":3803,"Ġbottom":3804,"Ġavailable":3805,"Ġtrade":3806,"ibly":3807,"ĠAnt":3808,"icket":3809,"Ġspeaking":3810,"Ġcoffee":3811,"Ġbi":3812,"Ġdeb":3813,"hib":3814,"Ġregular":3815,"Ġbirthday":3816,"Ġannounced":3817,"Ġbath":3818,"Ġfeed":3819,"Ġpercent":3820,"nÃ©":3821,"Ġdig":3822,"usion":3823,"ables":3824,"Ġsquare":3825,"eg":3826,"Ġden":3827,"Ġthreat":3828,"ĠPat":3829,"ĠPet":3830,"olk":3831,"initely":3832,"hal":3833,"Ġneck":3834,"Ġhelped":3835,"Ġmilk":3836,"Ġsnow":3837,"ĠBoy":3838,"aine":3839,"ĠEarth":3840,"Ġmovement":3841,"ĠAfrica":3842,"set":3843,"Ġdata":3844,"pping":3845,"Ġfounded":3846,"ĠEuropean":3847,"ĠAustralia":3848,"Ġbes":3849,"Ġlines":3850,"Ġestabl":3851,"Ġ29":3852,"lling":3853,"ĠAct":3854,"Ġweren":3855,"oom":3856,"ĠScot":3857,"ĠWhite":3858,"Con":3859,"year":3860,"hand":3861,"nie":3862,"aste":3863,"ĠOK":3864,"Ġspoke":3865,"Ġended":3866,"Ġtemper":3867,"Ġscared":3868,"ĠCollege":3869,"Ġeating":3870,"ĠMex":3871,"Ġpieces":3872,"Ġwonderful":3873,"ste":3874,"Ġenvironment":3875,"Ġgas":3876,"ĠCup":3877,"ĠChina":3878,"UN":3879,"da":3880,"Ġtired":3881,"Ġsuff":3882,"useum":3883,"Dr":3884,"iation":3885,"Ġwed":3886,"Ġoil":3887,"cean":3888,"ummer":3889,"Ġsociety":3890,"ĠWashington":3891,"Ġoffer":3892,"Ġsevent":3893,"Ġrights":3894,"ĠGrand":3895,"min":3896,"Ġstories":3897,"Ġraised":3898,"chen":3899,"atform":3900,"Ġaward":3901,"ĠAward":3902,"ĠBel":3903,"Ġnovel":3904,"Ġstarting":3905,"Only":3906,"yer":3907,"Ġoffe":3908,"elve":3909,"Ġchanges":3910,"ĠIran":3911,"Ġur":3912,"Ġexec":3913,"Ġclosed":3914,"Sir":3915,"pen":3916,"Ġ:":3917,"ential":3918,"Excuse":3919,"Ġresearch":3920,"Ġmethod":3921,"Ġhero":3922,"Ġcomfort":3923,"ĠEr":3924,"Ġpolitician":3925,"ental":3926,"roat":3927,"ĠDick":3928,"Ġtext":3929,"Ġdecision":3930,"Ġwalked":3931,"Ġtraining":3932,"Ġreview":3933,"yond":3934,"Ġworse":3935,"Ġarrest":3936,"oves":3937,"Ġcenter":3938,"Ġlearned":3939,"ography":3940,"aign":3941,"ji":3942,"arm":3943,"Ġaddress":3944,"Ġbirds":3945,"Ġbright":3946,"Ġdeli":3947,"Ġsounds":3948,"Ġap":3949,"oted":3950,"ushed":3951,"verage":3952,"Ġassist":3953,"fact":3954,"Ġlower":3955,"Ġchoice":3956,"ĠOlymp":3957,"ston":3958,"using":3959,"iling":3960,"ittee":3961,"Ġputting":3962,"Ġcro":3963,"Ġlikely":3964,"Ġwa":3965,"ĠDar":3966,"ĠRob":3967,"ube":3968,"Ġdemand":3969,"cad":3970,"ship":3971,"wr":3972,"ĠParis":3973,"Ġmem":3974,"ĠCr":3975,"ateg":3976,"oday":3977,"Ġbrain":3978,"Ġyesterday":3979,"Ġmedic":3980,"Ġdeterm":3981,"Ġund":3982,"Ġphil":3983,"Ġcalling":3984,"Ġexplain":3985,"iar":3986,"ĠFin":3987,"aps":3988,"ruit":3989,"Ġafterno":3990,"Ġmodel":3991,"Ġprinci":3992,"pir":3993,"Ġir":3994,"Ġride":3995,"Ġletters":3996,"Ġcharge":3997,"ĠNor":3998,"liament":3999,"First":4000,"Ġpsych":4001,"Ġnobody":4002,"Ġuniversity":4003,"Ġschools":4004,"lam":4005,"Ġought":4006,"Ġcow":4007,"ĠDep":4008,"Ġbelieved":4009,"Ġcreate":4010,"ĠItalian":4011,"Ġess":4012,"Ġwit":4013,"erved":4014,"oring":4015,"Ġmostly":4016,"Ġfinish":4017,"Ġevents":4018,"Ġjoin":4019,"Ġspecific":4020,"Ġissue":4021,"People":4022,"ilities":4023,"Ġsuit":4024,"ĠMinister":4025,"gent":4026,"ani":4027,"Ġbell":4028,"Ġfourth":4029,"Ġdouble":4030,"urt":4031,"Ġaffect":4032,"Ġtall":4033,"Ġcrew":4034,"ols":4035,"Ġsmell":4036,"Ġleader":4037,".'":4038,"western":4039,"asc":4040,"ĠBo":4041,"Ġdistance":4042,"Atlant":4043,"Ġangry":4044,"BC":4045,"Ġmor":4046,"Ġvac":4047,"Ġideas":4048,"Ġtheory":4049,"Ġcru":4050,"ĠSal":4051,"ĠPyr":4052,"berg":4053,"Ġagree":4054,"Ġspread":4055,"Ġchief":4056,"AC":4057,"ores":4058,"fast":4059,"ket":4060,"isions":4061,"Ġcab":4062,"Ġthirty":4063,"ashion":4064,"Ġmessage":4065,"burg":4066,"ini":4067,"uten":4068,"Ġstars":4069,"Ġemot":4070,"Ġdirector":4071,"Ġdisease":4072,"Ġimmediately":4073,"Ġstorm":4074,"ĠCath":4075,"Ġbusy":4076,"Ġafternoon":4077,"ĠSch":4078,"ĠAlan":4079,"Ġfaith":4080,"Se":4081,"Ġtail":4082,"atives":4083,"sequ":4084,"ĠCoun":4085,"Ġancient":4086,"Am":4087,"Ġrule":4088,"Ġble":4089,"uts":4090,"Ġstyle":4091,"Ġanal":4092,"ĠHall":4093,"ĠBob":4094,"Ġchem":4095,"Ġfarm":4096,"Ġproduction":4097,"ights":4098,"Ġspl":4099,"Ġbridge":4100,"Ġlovely":4101,"ĠArmy":4102,"ĠProvince":4103,"Ġsac":4104,"Ġenemy":4105,"Ġ2004":4106,"Ġcup":4107,"oseph":4108,"Ġbloody":4109,"Ġdan":4110,"esty":4111,"Ġarrived":4112,"Ġearlier":4113,"Sc":4114,"Ġsoul":4115,"ĠMaj":4116,"ucky":4117,"Ġcontinue":4118,"ĠSat":4119,"ĠAlex":4120,"ĠMac":4121,"ccording":4122,"Ġfault":4123,"Ġcovered":4124,"Ġimm":4125,"ST":4126,"ees":4127,"Ġsle":4128,"Ġhun":4129,"Ġelection":4130,"ĠCentral":4131,"Ġnecessary":4132,"vert":4133,"ĠJew":4134,"Ġtruck":4135,"Ġweap":4136,"Ġarg":4137,"Ġ189":4138,"Ġterrible":4139,"ĠSim":4140,"uments":4141,"Ġkick":4142,"ĠKore":4143,"rupt":4144,"Ġstreng":4145,"azing":4146,"why":4147,"sey":4148,"Ġbran":4149,"New":4150,"kin":4151,"ĠBer":4152,"ĠWil":4153,"Ġtherefore":4154,"Ġ()":4155,"Ġaccident":4156,"Ã©nÃ©":4157,"known":4158,"Ġestablished":4159,"Car":4160,"ients":4161,"Ġlog":4162,"Ġrap":4163,"ĠRobert":4164,"Ġcoach":4165,"Ġcareful":4166,"Ġsignific":4167,"Ġsuccessful":4168,"ĠItaly":4169,"Ġrelationship":4170,"eh":4171,"Ġhey":4172,"aled":4173,"Ġcondu":4174,"Ġopin":4175,"ĠCharles":4176,"ĠCongress":4177,"osition":4178,"Ġ186":4179,"Ġfighting":4180,"ech":4181,"wh":4182,"Ġcities":4183,"asant":4184,"ĠMark":4185,"Ġcontact":4186,"Ġslight":4187,"iverse":4188,"Ġpolicy":4189,"Ġcred":4190,"Ġfrog":4191,"ros":4192,"Wh":4193,"lor":4194,"ĠIts":4195,"aves":4196,"would":4197,"atory":4198,"Ġforces":4199,"rig":4200,"Ġskin":4201,"eds":4202,"Ġpet":4203,"Ġlif":4204,"Ġhall":4205,"stairs":4206,"Ġstone":4207,"order":4208,"ossible":4209,"Ġsettle":4210,"Ġpurpose":4211,"Ġreve":4212,"Ġliked":4213,"Ġ2020":4214,"Ġprice":4215,"Ġprint":4216,"Ġ2001":4217,"Ġcampaign":4218,"Ġmultip":4219,"ek":4220,"Ġcy":4221,"Ġmic":4222,"aries":4223,"Ġload":4224,"ĠInternational":4225,"Ġattract":4226,"otten":4227,"iety":4228,"iot":4229,"Ġnone":4230,"âĢİ.":4231,"Could":4232,"Ġtar":4233,"Ġinternational":4234,"Ġforth":4235,"Ġshown":4236,"inese":4237,"Alright":4238,"ĠCanada":4239,"Ã©nÃ©es":4240,"Ġforced":4241,"izing":4242,"Ġtells":4243,"Ġholding":4244,"ĠPyrÃ©nÃ©es":4245,"RO":4246,"lo":4247,"Ġcamer":4248,"aug":4249,"Ġ..":4250,"ann":4251,"Ġdrop":4252,"Ġlink":4253,"Ġspot":4254,"Ġminus":4255,"Ġescape":4256,"Ġwelcome":4257,"aching":4258,"anda":4259,"Atlantiques":4260,"Ġloss":4261,"Ġ2018":4262,"ses":4263,"rial":4264,"ĠPrin":4265,"Ġinvestig":4266,"Ġrate":4267,"RI":4268,"zen":4269,"itation":4270,"ĠChan":4271,"Ġcrow":4272,"Ġkinds":4273,"Ġwalking":4274,"Ġpractice":4275,"Ġmunicip":4276,"Ġdirected":4277,"Ġintern":4278,"enth":4279,"Ġkit":4280,"Ġcomed":4281,"cks":4282,"hedron":4283,"tt":4284,"ĠThank":4285,"ĠGold":4286,"Ġabsolutely":4287,"ournal":4288,"Ġcorner":4289,"Ġmachine":4290,"Ġcode":4291,"Ġrepe":4292,"Ġextreme":4293,"Ġmountain":4294,"good":4295,"Ġemer":4296,"ictor":4297,"Ġchick":4298,"Ġmedia":4299,"ĠSpanish":4300,"ĠKingdom":4301,"Ġpan":4302,"ura":4303,"Ġsigned":4304,"Ġservices":4305,"Ġsch":4306,"asing":4307,"Ġweight":4308,"cket":4309,"Ġleaves":4310,"Ġthee":4311,"Ġmum":4312,"Ġthus":4313,"ems":4314,"ĠJul":4315,"Ġknowledge":4316,"Ġsinger":4317,"Ġreading":4318,"umber":4319,"Got":4320,"ba":4321,"Ġpounds":4322,"Ġtwice":4323,"Ġpatient":4324,"gain":4325,"isf":4326,"Ġhom":4327,"isted":4328,"bell":4329,"Ġbeyond":4330,"Ġrelease":4331,"Ġweak":4332,"Ġhasn":4333,"Ġimagine":4334,"Ġaverage":4335,"ĠDuring":4336,"ification":4337,"Ġlegs":4338,"ederal":4339,"Ġopening":4340,"cap":4341,"win":4342,"ĠMet":4343,"Ġcalls":4344,"Ġbiggest":4345,"Ġdropped":4346,"Ġpush":4347,"vere":4348,"ulations":4349,"iant":4350,"Ġmoon":4351,"Ġdisp":4352,"Ġopportunity":4353,".--":4354,"Ġachie":4355,"atin":4356,"ĠHill":4357,"ĠPeople":4358,"ĠKent":4359,"Ġnewsp":4360,"Ġdollars":4361,"Gu":4362,"ÃŃ":4363,"etic":4364,"Ġintell":4365,"ĠYour":4366,"Ġdriving":4367,"Ġsystems":4368,"ware":4369,"Ġsides":4370,"Ġrose":4371,"Ġunless":4372,"Ġdiscovered":4373,"Ġempt":4374,"isters":4375,"ĠFrom":4376,"Ġconvers":4377,"ĠAnge":4378,"yan":4379,"phone":4380,"ĠScotland":4381,"mus":4382,"Ġyellow":4383,"ĠRoyal":4384,"eless":4385,"Ġacqu":4386,"Ġelected":4387,"Ġ1980":4388,"Put":4389,"ĠÃ":4390,"orks":4391,"Ġsymb":4392,"Ġsoldiers":4393,"Ġdefend":4394,"Ġphilosop":4395,"ĠIT":4396,"utter":4397,"oop":4398,"ĠDay":4399,"ĠRes":4400,"Ġnose":4401,"Ġfemale":4402,"den":4403,"Ġcustom":4404,"Ġaccording":4405,"Ġsurface":4406,"ĠCarol":4407,"Ġhighest":4408,"Ooh":4409,"ule":4410,"ĠMost":4411,"ĠPe":4412,"ours":4413,"Ġproud":4414,"Ġ2017":4415,"Ġteams":4416,"Everything":4417,"kins":4418,"Ã³":4419,"utch":4420,"istan":4421,"oses":4422,"Ġmistake":4423,"._":4424,"host":4425,"Ġbrief":4426,"Ġfirm":4427,"icious":4428,"Ġlots":4429,",--":4430,"Ġanywhere":4431,"orses":4432,"Ġentered":4433,"Ġdangerous":4434,"!âĢĿ":4435,"Wow":4436,"Ġfresh":4437,"Ġ1990":4438,"Ġsmaller":4439,"Ġcharacters":4440,"ĠMount":4441,"Ġflowers":4442,"Ġremain":4443,"Ġcurrently":4444,"Ġmemory":4445,"Fuck":4446,"THE":4447,"Ġboss":4448,"ĠMag":4449,"Ġgrowing":4450,"ĠCouncil":4451,"lear":4452,"alled":4453,"olf":4454,"lands":4455,"Ġepisode":4456,"Ġteach":4457,"Ġresour":4458,"Ġthroughout":4459,"Ġreligious":4460,"UT":4461,"Ġdogs":4462,"ĠBay":4463,"Ġsky":4464,"Ġeasily":4465,"ĠWestern":4466,"Ġopt":4467,"Ġmir":4468,"Ġgarden":4469,"rav":4470,"Ġplayers":4471,"Ġincludes":4472,"Ġfifty":4473,"Ġrisk":4474,"AY":4475,"acing":4476,"oph":4477,"Ġuses":4478,"Ġpictures":4479,"ĠMany":4480,"Ġclim":4481,"Ġswim":4482,"Ġwearing":4483,"Ġrules":4484,"ĠDemocr":4485,"History":4486,"Ġpound":4487,"icago":4488,"ĠMat":4489,"ulf":4490,"estival":4491,"Ġolder":4492,"Ġforeign":4493,"erc":4494,"ĠCom":4495,"Ġfunction":4496,"zz":4497,"andy":4498,"ĠTex":4499,"Ġplants":4500,"Ġvan":4501,"Ġtwelve":4502,"Ġwinter":4503,"Ġpositive":4504,"Ġexpected":4505,"Americ":4506,"cies":4507,"Ġpig":4508,"ĠLaw":4509,"Ġmissing":4510,"Ġoriginally":4511,"Ġindustry":4512,"Ġgrown":4513,"ĠAssociation":4514,"Those":4515,"En":4516,"Keep":4517,"sm":4518,"itiz":4519,"Ġge":4520,"Ġreligion":4521,"Since":4522,"Ġpred":4523,"lected":4524,"Ġassoci":4525,"Ġnegative":4526,"bes":4527,"astern":4528,"Ġ188":4529,"Ġwine":4530,"Ġlaid":4531,"cis":4532,"iber":4533,"Ġthinks":4534,"Ġremained":4535,"Ġcrime":4536,"AND":4537,"Ġbasket":4538,"Ġparticularly":4539,"stitution":4540,"itar":4541,"ĠDel":4542,"Ġcars":4543,"Che":4544,"Ġsurr":4545,"ram":4546,"urb":4547,"Ġnote":4548,"Ġspring":4549,"Ġtrip":4550,"utenant":4551,"Mic":4552,"dÃ©":4553,"ij":4554,"mark":4555,"Ġhide":4556,"Ġcommer":4557,"peror":4558,"ĠChinese":4559,"Ġdesp":4560,"Ġformula":4561,"Ġpossess":4562,"Ġadminist":4563,"rol":4564,"istry":4565,"Ġforty":4566,"Ġdirection":4567,"Ad":4568,"down":4569,"ima":4570,"ĠGreen":4571,"ĠThomas":4572,"Ġcondition":4573,"Ġstaff":4574,"ĠChe":4575,"Le":4576,"NA":4577,"Ã¶":4578,"cend":4579,"Ġrub":4580,"Ġflat":4581,"Ġfinan":4582,"ga":4583,"Ġduty":4584,"ĠRad":4585,"Ġroll":4586,"Ġchoose":4587,"ange":4588,"Ġvote":4589,"Ġprovide":4590,"Ġgradu":4591,"Rem":4592,"Ġbread":4593,"Ġdefinitely":4594,"Ġparticip":4595,"ĠCatholic":4596,"upp":4597,"reci":4598,"Ġworried":4599,"ĠEmp":4600,"Ġculture":4601,"from":4602,"arrow":4603,"ĠAcad":4604,"ĠPac":4605,"Ġcorrect":4606,"Ġcritic":4607,"ĠLouis":4608,"oms":4609,"bered":4610,"tained":4611,"ĠArt":4612,"ĠAtlant":4613,"Ġsouthwestern":4614,"Ġeggs":4615,"Ġdegree":4616,"gen":4617,"ĠLee":4618,"Ġslowly":4619,"SE":4620,"friend":4621,"sing":4622,"oned":4623,"ita":4624,"Ġyouth":4625,"Ġplaced":4626,"Ġ2003":4627,"Ġsecurity":4628,"Ġissues":4629,"coh":4630,"rat":4631,"rough":4632,"when":4633,"Ġpoll":4634,"Ġheat":4635,"ola":4636,"Ġagreed":4637,"because":4638,"Act":4639,"Ġlack":4640,"ĠApp":4641,"ĠHere":4642,"Ġstudent":4643,"Ġlarger":4644,"Ġfrequ":4645,"Ġrom":4646,"ĠDes":4647,"Ġmentioned":4648,"Ġhill":4649,"Ġlawyer":4650,"Ġstrength":4651,"IF":4652,"Ġfashion":4653,"Ġheaven":4654,"Ġthy":4655,"Ġaddition":4656,"Ġorders":4657,"icles":4658,"Ġrough":4659,"aging":4660,"Ġacting":4661,"Ġelectric":4662,"ĠMa":4663,"ĠPak":4664,"igned":4665,"ception":4666,"Ġdesigned":4667,"Ġjudge":4668,"ona":4669,"ching":4670,"Ġnotice":4671,"apt":4672,"Ġbrothers":4673,"Ġdamn":4674,"Ġlucky":4675,"Ind":4676,"LD":4677,"Ġiron":4678,"owa":4679,"ĠMont":4680,"ĠRail":4681,"ĠJer":4682,"Ġbigger":4683,"Ġrelated":4684,"ĠDev":4685,"Ġchallen":4686,"gypt":4687,"Ġtotally":4688,"Ġtroops":4689,"rees":4690,"ourney":4691,"Ġ(,":4692,"Ġguard":4693,"yeh":4694,"ĠArab":4695,"ĠAnne":4696,"Ġrecords":4697,"Ġbecomes":4698,"Ġcompanies":4699,"Hold":4700,"Ġsection":4701,"istics":4702,"Great":4703,"Ġtape":4704,"icate":4705,"Ġhouses":4706,"ĠMil":4707,"ootball":4708,";/":4709,"Ġtaught":4710,"...?":4711,"Ġcontent":4712,"Ġflight":4713,"Ġpicked":4714,"Ġaware":4715,"Ġreplaced":4716,"Ġbeg":4717,"agon":4718,"Ġscreen":4719,"ĠSpain":4720,"Ġperformance":4721,"Ġsource":4722,"arn":4723,"ashed":4724,"ĠGirl":4725,"asty":4726,"Ġdreams":4727,"Ġbreath":4728,"Ġwedding":4729,"cons":4730,"Ġ2002":4731,"Ġforms":4732,"Ġdrunk":4733,"Ġmainly":4734,"Ġmedical":4735,"Ġpressure":4736,"Never":4737,"Ã¨":4738,"have":4739,"ĠMike":4740,"Ġremark":4741,"Ġbasically":4742,"Ġtypes":4743,"Ġreported":4744,"Tom":4745,"Ġserve":4746,"Ġgenerally":4747,"stitute":4748,"uzz":4749,"Ġcrowd":4750,"Ġweather":4751,"ĠMom":4752,"ili":4753,"osh":4754,"Ġwriter":4755,"ĠChicago":4756,"Ġhonor":4757,"Ġrange":4758,"Ġ2021":4759,"Something":4760,"Cos":4761,"lN":4762,"Ġpair":4763,"Ġya":4764,"lem":4765,"ulous":4766,"ĠRock":4767,"Ġplans":4768,"Ġsmart":4769,"Ġplanet":4770,"ĠSus":4771,"Ġplatform":4772,"Ġwilling":4773,"Ġrecorded":4774,"idden":4775,"Ġcomplex":4776,"fficient":4777,"Ġindividual":4778,"ali":4779,"abor":4780,"ĠON":4781,"Ġtransl":4782,"Ġpowerful":4783,"Ġperformed":4784,"rang":4785,"vey":4786,"aked":4787,"Ġuncle":4788,"Ġleading":4789,"Ġcompetition":4790,"Ġfilled":4791,"Ġarchite":4792,"Ġox":4793,"Ġweird":4794,"Ġteeth":4795,"Ġ1970":4796,"IR":4797,"ĠChampionship":4798,"Ġvot":4799,"Ġconditions":4800,"mit":4801,"onel":4802,"imp":4803,"Ġwaste":4804,"Ġspeech":4805,"Ġlegal":4806,"Ġinfluence":4807,"Ġnetwork":4808,"Ġkitchen":4809,"ĠTexas":4810,"Ġbound":4811,"ĠCast":4812,"then":4813,"Ġobviously":4814,"Ġeventually":4815,"Ġfeatures":4816,"your":4817,"Ġforgot":4818,"Ġmedicine":4819,"craft":4820,"uries":4821,"will":4822,"hered":4823,"ĠMass":4824,"Ġbrown":4825,"ĠPrince":4826,"Ġmaid":4827,"stood":4828,"ĠTor":4829,"vention":4830,"Three":4831,"Ġetc":4832,"ishes":4833,"Ġpir":4834,"Ġhole":4835,"ontin":4836,"Ġenter":4837,"Ġsinging":4838,"partement":4839,"Mom":4840,"aded":4841,"Ġstuck":4842,"Ġactress":4843,"Ġsmile":4844,"Ġremind":4845,"Ġfailed":4846,"ĠAfrican":4847,"Ġoffered":4848,"Ġloud":4849,"ĠBu":4850,"ĠJud":4851,"Ġsake":4852,"ardon":4853,"Ġcentral":4854,"Ġclearly":4855,"dÃ©partement":4856,"sed":4857,"Ġfinger":4858,"ĠBet":4859,"Ġships":4860,"Ġhotel":4861,"ĠJackson":4862,"ournament":4863,"ĠSmith":4864,"About":4865,"Bye":4866,"Other":4867,"aring":4868,"odes":4869,"Ġinstr":4870,"Ġdescribed":4871,"Ġempty":4872,"gency":4873,"ipe":4874,"Ġtight":4875,"Ġnative":4876,"Ġhorses":4877,"ĠSing":4878,"Ġmeasure":4879,"Ġwhis":4880,"ĠDiv":4881,"odies":4882,"Ġaged":4883,"Ġpleasure":4884,"Perhaps":4885,"40":4886,"Help":4887,"Ġwet":4888,"Ġnorthern":4889,"ĠDis":4890,"ĠFred":4891,"ĠOf":4892,"iano":4893,"Ġreplied":4894,"Ġlock":4895,"ĠSund":4896,"Ġkilling":4897,"Once":4898,"Ġproperty":4899,"Ġbecoming":4900,"Char":4901,"law":4902,"ĠAND":4903,"Ġlies":4904,"Ġhandle":4905,"Ġedge":4906,"ĠPrincess":4907,"rish":4908,"Ġrare":4909,"Ġbless":4910,"Ġmissed":4911,"ais":4912,"car":4913,"lim":4914,"aches":4915,"Ġharm":4916,"Ġinterview":4917,"Ġpaint":4918,"Ġdivided":4919,"Ġresults":4920,"Ġconcerned":4921,"ĠAcademy":4922,"Ha":4923,"Ġfright":4924,"ĠAss":4925,"ĠRoad":4926,"Ġstudio":4927,"Ġproduce":4928,"bel":4929,"Ġsaved":4930,"Ġmanager":4931,"Ġattend":4932,"Ġoccup":4933,"ĠJoe":4934,"Ġcalm":4935,"Ġtarget":4936,"During":4937,"Ġcitiz":4938,"Ġnation":4939,"rif":4940,"Ġgoal":4941,"Ġstudied":4942,";&":4943,"UR":4944,"gn":4945,"Ġpartner":4946,"ips":4947,"Ġgreatest":4948,"ĠChristmas":4949,"ĠMajesty":4950,"Ġopinion":4951,"arly":4952,"ato":4953,"ĠRussian":4954,"AD":4955,"IGH":4956,"ault":4957,"Ġfaces":4958,"anced":4959,"ĠVictor":4960,"Ġrealize":4961,"Ġbitch":4962,"Ġofficers":4963,"70":4964,"Ġreasons":4965,"ami":4966,"osite":4967,"iance":4968,"Ġtele":4969,"oken":4970,"Ġstructure":4971,"lie":4972,"ora":4973,"Ġpapers":4974,"ĠMur":4975,"ĠMaster":4976,"Ġordered":4977,"Ġburied":4978,"Ġ2019":4979,"Ġstarts":4980,"Ġmission":4981,"Ġdirectly":4982,"azine":4983,"Ġeasier":4984,"Ġtechnology":4985,"ĠSuper":4986,"Ġwitness":4987,"IM":4988,"ĠIowa":4989,"imin":4990,"ĠSov":4991,"ĠWin":4992,"Ġneither":4993,"rences":4994,"ĠâĢĶ":4995,"Ġjack":4996,"Ġbutter":4997,"Ġroof":4998,"Ġheads":4999,"199":5000,"book":5001,"Ġbal":5002,"imately":5003,"Ġmeat":5004,"Ġmechan":5005,"ĠLin":5006,"ĠLos":5007,"ĠNat":5008,"Ġcomplet":5009,"Ġshape":5010,"Ġartist":5011,"Ġbreakfast":5012,"Ġsatisf":5013,"Ġquarter":5014,"Ġstock":5015,"ĠPan":5016,"Ġgreater":5017,"Ġdecide":5018,"fessor":5019,"Ġexperien":5020,"ĠSoviet":5021,"eral":5022,"Ġmere":5023,"ĠBas":5024,"Ġcancer":5025,"ĠFirst":5026,"iger":5027,"Ġruns":5028,"arently":5029,"Ok":5030,"Ġdom":5031,"ĠMars":5032,"ulty":5033,"Ġalt":5034,"ĠRome":5035,"Ġworst":5036,"Ġleaders":5037,"Ġstrugg":5038,"semb":5039,"ĠHi":5040,"ĠBro":5041,"Ġadult":5042,"Ġsurprised":5043,"'.":5044,"may":5045,"Ġbomb":5046,"Ġder":5047,"Ġlunch":5048,"Ġzero":5049,"Ġcrying":5050,"Ġincrease":5051,"Ġpalace":5052,"60":5053,"him":5054,"va":5055,"Ġcart":5056,"keep":5057,"urday":5058,"ĠFather":5059,"Ġamb":5060,"Ġseconds":5061,"Ġ1999":5062,"Ġtyp":5063,"Ġteaching":5064,"Ġflying":5065,"ĠEmpire":5066,"ym":5067,"Ġsen":5068,"ette":5069,"ighs":5070,"Ġevil":5071,"Ġtraditional":5072,"Ġgentlemen":5073,"ĠGreek":5074,"Ġprepared":5075,"comm":5076,"Ġmm":5077,"ening":5078,"asy":5079,"Ġmemor":5080,"Ġasleep":5081,"Ġlikes":5082,"Ġalcoh":5083,"Ġourselves":5084,"Ġhurry":5085,"fortun":5086,"Ġcircum":5087,".]":5088,"25":5089,"Ph":5090,"ĠHaw":5091,"Ġju":5092,"Ġshoes":5093,"Ġkeeping":5094,"elling":5095,"ĠLu":5096,"icked":5097,"Ġrecently":5098,"Ġbuildings":5099,"Ġdetect":5100,"Ġsurprise":5101,"MAN":5102,"mad":5103,"rate":5104,"Ġtaste":5105,"Ġsilly":5106,"iring":5107,"Ġrank":5108,"Ġjourney":5109,"ĠLake":5110,"ĠEgypt":5111,"Ġstandard":5112,"ios":5113,"rid":5114,"Ġign":5115,"Ġonto":5116,"Ġmetal":5117,"Ġdistribut":5118,"TS":5119,"war":5120,"ĠSa":5121,"Ġblind":5122,"Ġprovince":5123,"mar":5124,"Ġbab":5125,"lection":5126,"...\"":5127,"Ġshout":5128,"Ġconsum":5129,"Ġdrinking":5130,"ELL":5131,"wan":5132,"ingers":5133,"Ġlic":5134,"osen":5135,"Ġimpossible":5136,"Ġsleeping":5137,"Ġrequest":5138,"Ġcouncil":5139,"Pr":5140,"onds":5141,"ansas":5142,"Ġimage":5143,"Ġappreci":5144,"Ġlearning":5145,"Bet":5146,"Ġthick":5147,"Ġeld":5148,"ishop":5149,"Ġcamera":5150,"rated":5151,"ĠSun":5152,"iform":5153,"ĠBill":5154,"Ġforever":5155,"pre":5156,"ĠÂ":5157,"Ġjoy":5158,"igan":5159,"Ġsuc":5160,"ĠBrown":5161,"ĠMexico":5162,"bet":5163,"bles":5164,"Ġcash":5165,"ĠTai":5166,"ĠFil":5167,"azz":5168,"Ġcosts":5169,"ications":5170,"Ġsequ":5171,"Ġprove":5172,"Ġ31":5173,"Ġladies":5174,"Ġseparate":5175,"Ġhungry":5176,"Ġsucceed":5177,"Most":5178,"orough":5179,"Ġsaf":5180,"Ġprevent":5181,"Christ":5182,"Lea":5183,"rier":5184,"aret":5185,"Ġamazing":5186,"aval":5187,"Ġpromised":5188,"Ġdocument":5189,"Ġmultiple":5190,"Ġmunicipality":5191,"App":5192,"ĠOther":5193,"Ġgrant":5194,"Ġcontribut":5195,"Ġpocket":5196,"Ġkingdom":5197,"some":5198,"Ġduck":5199,"Ġactual":5200,"Ġemp":5201,"Ġstayed":5202,"Ġprograms":5203,"lig":5204,"urance":5205,"ctors":5206,"Ġknock":5207,"ĠJesus":5208,"Ġremem":5209,"Ġplanning":5210,"Ġ1960":5211,"utions":5212,"ĠST":5213,"ĠSant":5214,"Ġexcl":5215,"agn":5216,"Ġbelief":5217,"Ġchap":5218,"Mrs":5219,"Ġlanguages":5220,"Ġsoldier":5221,"Ġturns":5222,"Ġpattern":5223,"Ġconstit":5224,"Ġfavorite":5225,"Ġmut":5226,"ĠSea":5227,"ĠTony":5228,"Ġlistening":5229,"Ġsuspect":5230,"Ġast":5231,"Ġmate":5232,"ĠHon":5233,"ĠTwo":5234,"ĠGet":5235,"Ġcentre":5236,"Ġ--&":5237,"GE":5238,"Ġthrew":5239,"ĠSecret":5240,"oured":5241,"Ġpure":5242,"Ġears":5243,"Ġjournal":5244,"Ġplain":5245,"Ġcontr":5246,"Ġorganization":5247,"Ġbroadcast":5248,"Ġencour":5249,"ĠAngeles":5250,"Fine":5251,"Miss":5252,"ban":5253,"utive":5254,"Ġprevious":5255,"ĠGovernment":5256,"While":5257,"bar":5258,"ipped":5259,"antic":5260,"Ġrat":5261,"place":5262,"clock":5263,"Ġswear":5264,"Ġrequired":5265,"isl":5266,"isher":5267,"Ġmob":5268,"Ġfreed":5269,"Ġdrew":5270,"Ġren":5271,"Ġreven":5272,"Ġreact":5273,"Ġgodd":5274,"Ġscar":5275,"Ġpretend":5276,"Ġcastle":5277,"ĠCompany":5278,"80":5279,"water":5280,"oma":5281,"ĠBang":5282,"Ġappointed":5283,"Add":5284,"Ġma":5285,"stra":5286,"ira":5287,"Ġmanaged":5288,"ĠKar":5289,"ordin":5290,"Ġactive":5291,"23":5292,"Say":5293,"Ġbother":5294,"Ġloves":5295,"ĠHam":5296,"Ġsports":5297,"aren":5298,"Ġunit":5299,"Ġcrack":5300,"Ġsplit":5301,"Ġsignificant":5302,"Huh":5303,"umn":5304,"Ġunits":5305,"nedy":5306,"Ġninet":5307,"Ġschol":5308,"bu":5309,"arling":5310,"adian":5311,"Ġdebut":5312,"ivity":5313,"Ġscrew":5314,"Ġdelight":5315,"Ġcopy":5316,"Te":5317,"Ġsouthern":5318,"Ġpil":5319,"about":5320,"Ġgrass":5321,"awa":5322,"Ġreality":5323,"Ġchocol":5324,"Sha":5325,"jo":5326,"ache":5327,"ĠLine":5328,"Ġplane":5329,"Ġtransport":5330,"Ġdemon":5331,"ean":5332,"ota":5333,"ĠAh":5334,"ĠFer":5335,"Ġlights":5336,"Ġlocation":5337,"Ġstruck":5338,"hey":5339,"ican":5340,"Ġqual":5341,"Ġfavour":5342,"Ġmotor":5343,"RB":5344,"itan":5345,"ado":5346,"urry":5347,"ĠTheir":5348,"ĠRay":5349,"ogether":5350,"aving":5351,"Ġsilver":5352,"ĠIndiana":5353,"CK":5354,"bre":5355,"ker":5356,"Ġchat":5357,"Ġfra":5358,"Ġstream":5359,"Ġuniverse":5360,"Ġtransfer":5361,"Ġbeauty":5362,"Ġterrit":5363,"Ġappears":5364,"Ġroute":5365,"Ġdestroyed":5366,"Out":5367,"ĠDid":5368,"artment":5369,"ĠOld":5370,"Ġ1996":5371,"Before":5372,"Ġhumans":5373,"Ġconstruction":5374,"Ġphysical":5375,"Next":5376,"boy":5377,"aling":5378,"ooper":5379,"Ġpoet":5380,"chant":5381,"Ġstreets":5382,"Ġintroduced":5383,"Ġindependent":5384,"Com":5385,"Ġmale":5386,"Ġlosing":5387,"ushing":5388,"bey":5389,"ĠChief":5390,"Ġrelative":5391,"ĠIslam":5392,"ĠFrancis":5393,"Ġeconomic":5394,"24":5395,"Ġbast":5396,"ĠMel":5397,"Ġsmoke":5398,"iously":5399,"Ġfeels":5400,"Ġturning":5401,"Ġpossibly":5402,",'":5403,"Ġfought":5404,"Ġpin":5405,"ĠMu":5406,"gend":5407,"Ġaltern":5408,"Ġprogress":5409,"Ġrequire":5410,"Sometimes":5411,"Over":5412,"orter":5413,"owed":5414,"uted":5415,"Ġroy":5416,"Ġfinding":5417,"Another":5418,"Ġoperation":5419,"Actually":5420,"Tw":5421,"Ġcuri":5422,"ĠLady":5423,"ĠEvery":5424,"Ġtrial":5425,"Ġtreatment":5426,"leg":5427,"Ġstret":5428,"Ġunivers":5429,"Ġsword":5430,"Ġinstru":5431,"Ġhardly":5432,"Ġlaws":5433,"Anyway":5434,"Ġaccepted":5435,"och":5436,"sha":5437,"Ġah":5438,"Ġwake":5439,"ella":5440,"ĠDO":5441,"Ġshowing":5442,"Ġ1998":5443,"ĠRec":5444,"Ġneighbor":5445,"Ġresponsible":5446,"aughed":5447,"Ġfinancial":5448,"ALL":5449,"SP":5450,"Ġdare":5451,"riff":5452,"ĠPenn":5453,"geant":5454,"Ġscream":5455,"Ġmagn":5456,"ĠGovernor":5457,"Ġcandid":5458,"Cap":5459,"Cause":5460,"Ġfruit":5461,"Ġdirty":5462,"Ġwash":5463,"hia":5464,"achus":5465,"Ġ1997":5466,"Ġ60":5467,"hetic":5468,"CE":5469,"Make":5470,"Many":5471,"nam":5472,"Ġgall":5473,"Ġrent":5474,"ĠSil":5475,"ĠSqu":5476,"Ġhadn":5477,"iana":5478,"Ġquality":5479,"ĠAmericans":5480,"ERE":5481,"Ġretired":5482,"Ġsymbol":5483,"Today":5484,"Ġdressed":5485,"Ġtoward":5486,"rib":5487,"oston":5488,"Ġdrugs":5489,"\"?":5490,"EL":5491,"ties":5492,"uous":5493,"ufact":5494,"Ġtick":5495,"ala":5496,"lying":5497,"kend":5498,"antage":5499,"elcome":5500,"Ġrecent":5501,"Ġhelping":5502,"Ġ185":5503,"Ġdivision":5504,"Ġrocks":5505,"American":5506,"say":5507,"heast":5508,"Ġgro":5509,"ĠBest":5510,"ĠRog":5511,"ĠKh":5512,"Ġstatement":5513,"Ġfixed":5514,"Ġbrave":5515,"two":5516,"thank":5517,"while":5518,"Ġtong":5519,"Ġinha":5520,"uman":5521,"Ġscr":5522,"Isn":5523,"ANT":5524,"Ġlands":5525,"Remember":5526,"La":5527,"Sm":5528,"iral":5529,"elled":5530,"Ġbrand":5531,"Ġscore":5532,"Ġnumer":5533,"Ġfalling":5534,"Ġexchan":5535,"Ġcomedy":5536,"Ġfro":5537,"Ġpra":5538,"icide":5539,"imum":5540,"aming":5541,"Ġjail":5542,"ĠFootball":5543,"ĠUK":5544,"Ġjobs":5545,"ĠBecause":5546,"Shut":5547,"ĠParliament":5548,"ĠSaturday":5549,"ĠSunday":5550,"UGH":5551,"father":5552,"hell":5553,"Ġodd":5554,"Ġghost":5555,"Ġmeas":5556,"alls":5557,"oles":5558,"Ġprince":5559,"Ġyounger":5560,"Ġgiant":5561,"Ġrailway":5562,"Ġsafety":5563,"yo":5564,"Ġpleased":5565,"ĠMajor":5566,"ĠBa":5567,"Ġflo":5568,"Ġcoat":5569,"Ġminor":5570,"Ġapproach":5571,"Ġproducts":5572,"Ġaudience":5573,"Nice":5574,"ĠHans":5575,"Ġends":5576,"Ġinstit":5577,"Ġbottle":5578,"aning":5579,"Ġdiam":5580,"atre":5581,"Ġlord":5582,"ĠAng":5583,"Ġrise":5584,"Ser":5585,"bow":5586,"pret":5587,"rance":5588,"Ġtournament":5589,"ĠSl":5590,"ĠWal":5591,"elly":5592,"Ġmanufact":5593,"ĠPrime":5594,"Ġveh":5595,"ĠCenter":5596,"Ġmanagement":5597,"vi":5598,"wing":5599,"Ġtim":5600,"heart":5601,"Ġlaughed":5602,"Ġgay":5603,"cts":5604,"Ġafterwards":5605,"cles":5606,"ocent":5607,"Ġpoly":5608,"Ġpulled":5609,"Ġtemperature":5610,"Ġmicro":5611,"uyeh":5612,"Ġdying":5613,"ĠCamp":5614,"ilty":5615,"ĠThan":5616,"ĠWood":5617,"ĠValley":5618,"Ġadop":5619,"ĠAdm":5620,"Ġdefeated":5621,"21":5622,"Ġthroat":5623,"Ġreform":5624,"Ġnoticed":5625,"fection":5626,"Ġagre":5627,"Ġclock":5628,"oving":5629,"Ġexcuse":5630,"Ġwalls":5631,"Ġbac":5632,"enced":5633,"idents":5634,"amin":5635,"ĠMer":5636,"ĠMill":5637,"ĠLy":5638,"Ġuniform":5639,"Ġprefer":5640,"Ġcards":5641,"essel":5642,"irk":5643,"Ġbye":5644,"atherine":5645,"Ġshad":5646,"Ġmatters":5647,"Everybody":5648,"ĠScottish":5649,"Ġimprove":5650,"ĠDivision":5651,"Ġtiny":5652,"onse":5653,"ĠIS":5654,"hio":5655,"Ġremains":5656,"ĠAsia":5657,"ysis":5658,"ĠCanadian":5659,"ominated":5660,"cellent":5661,"stein":5662,"Ġfingers":5663,"arian":5664,"Ġnuc":5665,"Ġdisplay":5666,"Ġexpress":5667,"Ġconstant":5668,"Ġhonour":5669,"Ġthousands":5670,"Ġsteps":5671,"bi":5672,"ugg":5673,"yp":5674,"Ġbub":5675,"Ġwheel":5676,"Didn":5677,"Ġoccasion":5678,"said":5679,"Ġsli":5680,"etts":5681,"Ġlibr":5682,"ĠTw":5683,"Ġagent":5684,"--\"":5685,"flict":5686,"Ġbasic":5687,"roll":5688,"resp":5689,"ĠStud":5690,"hammad":5691,"Ġ187":5692,"Ġmusical":5693,"Ġgrave":5694,"Ġgentleman":5695,"Ġeffort":5696,"Ġsin":5697,"enny":5698,"Ġbeach":5699,"ĠPope":5700,"Ġremoved":5701,"Ġpolitics":5702,"hampion":5703,"Ġraise":5704,"Ġavoid":5705,"Ġsilence":5706,"Ġsusp":5707,"Ġbodies":5708,"quar":5709,"Ġarrange":5710,"Ġsubs":5711,"Ġopposite":5712,"Ġreceive":5713,"Ġfifth":5714,"ĠRussia":5715,"vad":5716,"Ġbat":5717,"Ġfaster":5718,"ctic":5719,"Ġliber":5720,"Ġusual":5721,"Ġentertain":5722,"Ġdetails":5723,"ĠBritain":5724,"Ġcerem":5725,"Ġsweetie":5726,"Ġguns":5727,"uals":5728,"ockey":5729,"Ġmatches":5730,"Ġassum":5731,"Ġsolution":5732,"Ġmax":5733,"Ġpit":5734,"alright":5735,"ĠDou":5736,"ĠGO":5737,"Ġafford":5738,"ĠRev":5739,"More":5740,"Ġcomment":5741,"ĠKoh":5742,"Whatever":5743,"ĠâĢĺ":5744,"Ġ1994":5745,"Ġjoke":5746,"Ġattacked":5747,"gil":5748,"stances":5749,"add":5750,"Ġawful":5751,"Ġentirely":5752,"achusetts":5753,"ua":5754,"uit":5755,"vest":5756,"Ġbare":5757,"Ġknowing":5758,"ĠLook":5759,"ĠOff":5760,"Ġcompos":5761,"Ġprovided":5762,"Ġconnected":5763,"Ġsettled":5764,"Ġmo":5765,"ĠIre":5766,"Ġhast":5767,"stead":5768,"Ġsees":5769,"Ġknife":5770,"Ġgoods":5771,"izz":5772,"Ġrecomm":5773,"Stay":5774,"Ġ1995":5775,"Ġmaintain":5776,"Ġauthority":5777,"Ġcloser":5778,"ĠKennedy":5779,"Ġbudget":5780,"Ġcredit":5781,"Ġcompleted":5782,"EC":5783,"happ":5784,"Ġboo":5785,"Ġfired":5786,"owing":5787,"ĠDire":5788,"Ġconcept":5789,"emic":5790,"Ġeverywhere":5791,"Ġcauses":5792,"Ġcolour":5793,"ĠConstitution":5794,"Ġfocus":5795,"Ġchocolate":5796,"Ġroyal":5797,"Ġcous":5798,"ĠSol":5799,"oops":5800,"ĠLatin":5801,"ĠJac":5802,"Ġqueen":5803,"Ġhighly":5804,"WH":5805,"ja":5806,"Ġtun":5807,"Ġwestern":5808,"alent":5809,"ĠSaint":5810,"urd":5811,"ĠPre":5812,"Ġshore":5813,"ĠFore":5814,"Ġexpensive":5815,"Ġcircle":5816,"Ġcounter":5817,"vania":5818,"Ġslightly":5819,"fits":5820,"onia":5821,"ĠSid":5822,"ĠMich":5823,"Ġproceed":5824,"Ġcontains":5825,"Ġforgotten":5826,"Ġnewspaper":5827,"pal":5828,"Ġut":5829,"ĠIm":5830,"ĠSpe":5831,"ĠCat":5832,"Ġability":5833,"Ġspoken":5834,"Ġflu":5835,"eaking":5836,"Ġweekend":5837,"Ġtrave":5838,"Ġmajority":5839,"Ġshooting":5840,"ĠĠĠĠĠĠĠĠĠĠĠĠĠĠĠĠ":5841,"Ġchicken":5842,"29":5843,"pa":5844,"Ġmap":5845,"ĠMore":5846,"eman":5847,"Ġuseful":5848,"Still":5849,"Ġswitch":5850,"ĠSwed":5851,"Ġactivity":5852,"rick":5853,"ĠRight":5854,"Ġsomewhat":5855,"Ġstudies":5856,"Ġrestaur":5857,"Ġvictory":5858,"Ġchemical":5859,"ila":5860,"Ġlips":5861,"intend":5862,"Ġfeelings":5863,"Ġwinning":5864,"Ġstatus":5865,"Ġcalcul":5866,"Ġalcohol":5867,"Damn":5868,"OD":5869,"Ġocean":5870,"ingu":5871,"ĠHel":5872,"olved":5873,"thur":5874,"Ġbringing":5875,"ĠRepublican":5876,"Ġconversation":5877,"ION":5878,"Ġfal":5879,"ĠHot":5880,"ĠDutch":5881,"ĠOx":5882,"ĠVer":5883,"Ġprem":5884,"uckles":5885,"ĠFriday":5886,"Everyone":5887,"ĠCommun":5888,"Ġgraph":5889,"Ġprincess":5890,"Ġextremely":5891,"iven":5892,"uan":5893,"Ġwrest":5894,"ĠHarr":5895,"eare":5896,"ĠJane":5897,"weet":5898,"Ġflower":5899,"ĠBlue":5900,"Ġrapid":5901,"LY":5902,"overy":5903,"rs":5904,"vis":5905,"Ġtough":5906,"verse":5907,"Ġanx":5908,"Ġgrab":5909,"were":5910,"Ġguilty":5911,"ĠProt":5912,"Ġprior":5913,"ĠDoctor":5914,"ĠMassachusetts":5915,"enger":5916,"ĠWH":5917,"Ġsugar":5918,"izes":5919,"Ġadvent":5920,"Ġadvice":5921,"ports":5922,"Ġdrama":5923,"à¤":5924,"Ġinvent":5925,"ĠSummer":5926,"ĠMax":5927,"Ġnoise":5928,"Ġmanner":5929,"Ġprime":5930,"Ġowned":5931,"Ġelement":5932,"oking":5933,"ĠCarl":5934,"Ġconstru":5935,"ĠAustralian":5936,"Ġbenefit":5937,"VER":5938,"eed":5939,"arry":5940,"Ġtrick":5941,"Ġ35":5942,"Back":5943,"James":5944,"rain":5945,"enes":5946,"ĠWhile":5947,"ĠWomen":5948,"Ġvessel":5949,"Nobody":5950,"However":5951,"Ġearn":5952,"Ġconsist":5953,"Ġdamage":5954,"Ġautom":5955,"Ġflew":5956,"Ġawarded":5957,"Ġlin":5958,"alm":5959,"unched":5960,"Ġplanned":5961,"Ġgolden":5962,"Ġtradition":5963,"Ġsuggested":5964,"Ġresources":5965,"Ġnineteen":5966,"27":5967,"nat":5968,"Ġeh":5969,"acle":5970,"ĠGe":5971,"Ġshirt":5972,"Ġpresence":5973,"Ġfully":5974,"porary":5975,"ĠSenate":5976,"EE":5977,"Norm":5978,"ĠShi":5979,"ĠWind":5980,"ĠGames":5981,"osa":5982,"Ġupset":5983,"Ġcoal":5984,"hamber":5985,"Ġcollection":5986,"Ġcommercial":5987,"Watch":5988,"Äĩ":5989,"Ġmel":5990,"cel":5991,"ulate":5992,"abeth":5993,"Ġresc":5994,"Ġhelps":5995,"ĠYoung":5996,"Ġchest":5997,"Ġ1992":5998,"Ġpassing":5999,"ĠOlympics":6000,"Leave":6001,"ĠSecretary":6002,"28":6003,"iest":6004,"Ġfederal":6005,"Ġgain":6006,"Ġult":6007,"Ġsem":6008,"ĠBig":6009,"Ġliqu":6010,"ĠWay":6011,"abbit":6012,"erman":6013,"Ġparties":6014,"Ġkeeps":6015,"Ġexpand":6016,"Ġescap":6017,"ĠPlay":6018,"gment":6019,"isa":6020,"ĠSince":6021,"ĠSouthern":6022,"angle":6023,"Ġresist":6024,"ricane":6025,"ĠConf":6026,"itzer":6027,"ĠMichigan":6028,"Mhm":6029,"irlf":6030,"ĠBell":6031,"ĠLittle":6032,"Someone":6033,"syl":6034,"razil":6035,"Ġsexual":6036,"irlfriend":6037,"Love":6038,"OS":6039,"gal":6040,"Ġnerv":6041,"rible":6042,"Ġconc":6043,"ocal":6044,"Ġunderstood":6045,"Ġcarbon":6046,"Ġdesire":6047,"Ġtraffic":6048,"ĠGroup":6049,"ĠPrize":6050,".)":6051,"PS":6052,"peare":6053,"ras":6054,"Ġnotes":6055,"Ġupstairs":6056,"Ġproof":6057,"onder":6058,"Ġflag":6059,"Ġscale":6060,"Ġhanging":6061,"AA":6062,"Ġgift":6063,"ourse":6064,"ĠDen":6065,"ĠInstitute":6066,"Ġkiller":6067,"Ġ1991":6068,"ĠSociety":6069,"ĠClub":6070,"Ġnorthwest":6071,"Shit":6072,"kespeare":6073,"ĠCarolina":6074,"El":6075,"ef":6076,"Ġthin":6077,"ĠTown":6078,"Ġchain":6079,"ĠJimmy":6080,"Ġoccurred":6081,"Ġwatched":6082,"ĠKohgil":6083,"ĠKohgiluyeh":6084,"load":6085,"Ġwebs":6086,"Ġdoors":6087,"Ġate":6088,"ĠFre":6089,"Ġchosen":6090,"Ġsignal":6091,"ropri":6092,"Ġdetail":6093,"Ġadmit":6094,"Ġdrawing":6095,"Ġlimited":6096,"YOU":6097,"sit":6098,"spect":6099,"urse":6100,"inda":6101,"ĠStep":6102,"Ġ1993":6103,"Ġpresented":6104,"Ġrepresented":6105,"Su":6106,"WE":6107,"fall":6108,"ias":6109,"Ġrum":6110,"Ġconcent":6111,"them":6112,"Ġdram":6113,"Ġunderstanding":6114,"Ġeffects":6115,"Ġperfectly":6116,"Ġapolog":6117,"Ġdancing":6118,"Jack":6119,"km":6120,"Ġtears":6121,"Ġwings":6122,"Ġpill":6123,"Ġhook":6124,"ĠShow":6125,"Ġstations":6126,"Ġdisci":6127,"Ġexpression":6128,"ĠCarter":6129,"ĠColumb":6130,"ĠTHAT":6131,"Ġintellig":6132,"Ġcateg":6133,"etch":6134,"Ġstated":6135,"ĠCH":6136,"Ġcarefully":6137,"Think":6138,"ervation":6139,"Ġmountains":6140,"Ġcabin":6141,"mo":6142,"Ã¦":6143,"amily":6144,"ounding":6145,"ĠStar":6146,"Ġunique":6147,"Ġmagazine":6148,"Ġconnection":6149,"Ġpunish":6150,"ko":6151,"vin":6152,"has":6153,"Ġcream":6154,"otion":6155,"ĠHa":6156,"ums":6157,"ĠUnder":6158,"Ġgrowth":6159,"Ġappearance":6160,"Ġincreased":6161,"Ġreaction":6162,"ĠHello":6163,"olks":6164,"Ġtroub":6165,"Ġcloud":6166,"Ġappeal":6167,"Ġbreaking":6168,"Ġhearing":6169,"Ġteachers":6170,"EAK":6171,"dis":6172,"erves":6173,"illed":6174,"ĠGar":6175,"ĠOhio":6176,"ĠKansas":6177,"Ġquit":6178,"Ġshoulder":6179,"icted":6180,"Ġsigns":6181,"Ġkidding":6182,"ĠProfessor":6183,"Ġdivor":6184,"Ġforgive":6185,"Ġdrove":6186,"ĠDepartment":6187,"Ġachieve":6188,"vy":6189,"Ġloose":6190,"stone":6191,"ĠWall":6192,"acks":6193,"angers":6194,"Ġansw":6195,"Ġballs":6196,"Ġmagic":6197,"Ġlabor":6198,"Ġneighbour":6199,"sylvania":6200,"\").":6201,"ulated":6202,"Ġmyth":6203,"ĠNaz":6204,"Ġclimate":6205,"reek":6206,"Ġcontain":6207,"Ġinstance":6208,"197":6209,"Ġbasis":6210,"ĠGeorg":6211,"Ġdaily":6212,"Ġbullet":6213,"Ġninety":6214,"Ġbeside":6215,"Ġbranch":6216,"Addons":6217,"EO":6218,"Open":6219,"_.":6220,"Ġmuseum":6221,"Ġlit":6222,"Ġhiding":6223,"ĠAwards":6224,"Ġspin":6225,"Ġotherwise":6226,"Ġexcited":6227,"Ġhello":6228,"Should":6229,"Ġdeclared":6230,"RA":6231,"Ġdyn":6232,"Ġnarrow":6233,"Ġshr":6234,"Ġowner":6235,"Ġ45":6236,"standing":6237,"Ġresponse":6238,"Ġadvantage":6239,"Ġfailure":6240,"Ġnormally":6241,"Ġremembered":6242,"Call":6243,"Under":6244,"Ġfold":6245,"eding":6246,"Ġune":6247,"Ġsevere":6248,"Ġbutton":6249,"Ġcommittee":6250,"Ġshared":6251,"Ġleague":6252,"198":6253,"Ġstaying":6254,"Ġfigures":6255,"aughs":6256,"Eng":6257,"bably":6258,"Ġfan":6259,"ĠCons":6260,"ĠMaz":6261,"ĠLater":6262,"Ġworkers":6263,"Ġdriver":6264,"ropical":6265,"ĠDaniel":6266,"Ġlaughing":6267,"Paul":6268,"ois":6269,"Ġdim":6270,"Ġmyster":6271,"Ġshock":6272,"Ġexerc":6273,"Ġblame":6274,"Ġblank":6275,"Ġeastern":6276,"Ġbillion":6277,"ĠJeff":6278,"Ġmixed":6279,"ĠDemocratic":6280,"Sit":6281,"dad":6282,"ups":6283,"Ġpowers":6284,"ads":6285,"ustration":6286,"ieutenant":6287,"Ġguitar":6288,"obal":6289,"Ġmathem":6290,"ĠAsian":6291,"Ġimpact":6292,"Ġ70":6293,"Ġcarrying":6294,"ĠPacific":6295,"ĠIreland":6296,"Ġeth":6297,"Ġfant":6298,"ĠShar":6299,"ĠMother":6300,"ĠMuseum":6301,"Ġplenty":6302,"aki":6303,"Ġpassion":6304,"arrass":6305,"Ġviolence":6306,"Ġcomfortable":6307,"gly":6308,"wide":6309,"iminal":6310,"ĠLove":6311,"ĠJoseph":6312,"Ġvariety":6313,"Ġslept":6314,"ĠTime":6315,"estic":6316,"rael":6317,"Ġquant":6318,"Ġinvited":6319,"Ġcolon":6320,"Ġapprox":6321,"22":6322,"35":6323,"want":6324,"Å«":6325,"Ġnurs":6326,"Ġcitizens":6327,"ĠPennsylvania":6328,"According":6329,"Jesus":6330,"gor":6331,"Ġcas":6332,"Ġfurn":6333,"Ġded":6334,"Ġnea":6335,"Ġstro":6336,"ĠBat":6337,"ĠLike":6338,"Ġpoison":6339,"ĠThree":6340,"Although":6341,"Ġclasses":6342,"chestra":6343,"Ġoperations":6344,"Ġprotection":6345,"Ġproposed":6346,"ĠKentucky":6347,"Ġtask":6348,"inity":6349,"entially":6350,"Ġaspect":6351,"ummy":6352,"Ġsheep":6353,"ĠMaria":6354,"Ġfollows":6355,"Ġdragon":6356,"Ġpurcha":6357,"Ġ1950":6358,"Ġsharp":6359,"Ġdeliver":6360,"lNG":6361,"Ġtongue":6362,"34":6363,"Father":6364,"nic":6365,"Ä«":6366,"Ġtied":6367,"Ġwid":6368,"Ġmail":6369,"ĠCle":6370,"ĠBrazil":6371,"ĠTay":6372,"Ġunion":6373,"Ġchanging":6374,"Ġprize":6375,"Ġwindows":6376,"Ġsquared":6377,"sembly":6378,"mpt":6379,"orse":6380,"Ġgirlfriend":6381,"omach":6382,"ĠBroad":6383,"Ġsomehow":6384,"agement":6385,"Ġroles":6386,"ĠInter":6387,"Ġprec":6388,"Ġtowns":6389,"Ġartists":6390,"Ġ90":6391,"Early":6392,"iy":6393,"Ġic":6394,"oog":6395,"ctures":6396,"ĠHung":6397,"Ġconference":6398,"Ġsuffe":6399,"Ġapple":6400,"should":6401,"Ġfallen":6402,"Ġsilent":6403,"Ġselling":6404,"ĠMartin":6405,"Ġsettlement":6406,"bury":6407,"aman":6408,"Ġvirt":6409,"new":6410,"Ġthoughts":6411,"Ġeaten":6412,"Ġsupported":6413,"Ġadvance":6414,"Ġhistorical":6415,"Ġcaptured":6416,"BE":6417,"sure":6418,"real":6419,"reck":6420,"Ġconflict":6421,"Ġshell":6422,"apa":6423,"ĠKhan":6424,"amps":6425,"duc":6426,"Ġshame":6427,"Ġpaying":6428,"Ġvictim":6429,"Ġinhabit":6430,"ext":6431,"rant":6432,"Ġtap":6433,"Ġwave":6434,"ano":6435,"Ġlatter":6436,"aly":6437,"ĠSee":6438,"endment":6439,"Ġunknown":6440,"izabeth":6441,"ulture":6442,"Ġoldest":6443,"Ġchose":6444,"Ġsetting":6445,"Exactly":6446,"burgh":6447,"Ġmulti":6448,"Ġholiday":6449,"Ġarrested":6450,"Sid":6451,"des":6452,"Ġtor":6453,"Ġbeer":6454,"Ġseasons":6455,"unny":6456,"formation":6457,"Ġproducer":6458,"Ġdrawn":6459,"Ġgods":6460,"Ġstrike":6461,"Ġfeatured":6462,"Ġmaterials":6463,"ĠSusan":6464,"Ġbastard":6465,"Fl":6466,"ront":6467,"Ġax":6468,"Ġcig":6469,"ĠBE":6470,"ĠBoston":6471,"Ġmyst":6472,"does":6473,"Ġinsurance":6474,"Ġrespond":6475,"Ġprimary":6476,"Ġnervous":6477,"Sl":6478,"ez":6479,"iÄĩ":6480,"Ġboot":6481,"Ġpiano":6482,"Ġham":6483,"adium":6484,"aka":6485,"Ġserving":6486,"Ġboyfriend":6487,"Ġdisappeared":6488,"pet":6489,"Ġsalt":6490,"Ġcake":6491,"ĠMod":6492,"iece":6493,"onday":6494,"Ġwrit":6495,"Ġsteel":6496,"Ġfifteen":6497,"Ġfields":6498,"ĠKorea":6499,"Ġassociated":6500,"Ġfreedom":6501,"long":6502,"rical":6503,"Ġfile":6504,"esides":6505,"Ġbride":6506,"Ġpartners":6507,"Ġadvert":6508,"Ġdiss":6509,"Ġdesper":6510,"Ġcheese":6511,"Ġfairly":6512,"Ġmotion":6513,"Has":6514,"Hmm":6515,"SC":6516,"rend":6517,"Ġsust":6518,"Ġlat":6519,"ĠBal":6520,"istor":6521,"Ġseek":6522,"Ġsport":6523,"ĠYear":6524,"ĠAnn":6525,"ĠZeal":6526,"Ġvari":6527,"Ġterror":6528,"Ġtreated":6529,"Ġhyp":6530,"Captain":6531,"SB":6532,"Try":6533,"Welcome":6534,"heim":6535,"erk":6536,"ito":6537,"Ġgate":6538,"Ġnom":6539,"ĠIII":6540,"ading":6541,"Ġkil":6542,"ĠLong":6543,"pered":6544,"Ġpreviously":6545,"Ġminister":6546,"Ġpatients":6547,"Ġexperiment":6548,"Ġhundreds":6549,"Ġargument":6550,"Ġsuffered":6551,"cest":6552,"wa":6553,"Ġdiet":6554,"Ġgang":6555,"Ġwealth":6556,"ĠMem":6557,"urally":6558,"ĠBra":6559,"ands":6560,"ĠTol":6561,"Ġrow":6562,"Ġaband":6563,"ĠRose":6564,"Ġbackground":6565,"Ġcheer":6566,"Whoa":6567,"apping":6568,"Ġjoint":6569,"Ġlabel":6570,"Ġhyd":6571,"Ġeconomy":6572,"OME":6573,"Ġembarrass":6574,"ĠThanks":6575,"after":6576,"Ġtie":6577,"Ġpha":6578,"Ġheav":6579,"Ġstomach":6580,"ĠCivil":6581,"ĠBull":6582,"ĠDa":6583,"ements":6584,"ĠKe":6585,"Ġunf":6586,"hole":6587,"Ġguest":6588,"Ġ1989":6589,"Ġbegins":6590,"osphere":6591,"Ġweapons":6592,"Ġbasketball":6593,"found":6594,"isation":6595,"ĠWales":6596,"odd":6597,"Ġimpl":6598,"Ġchannel":6599,"Ġsupply":6600,"Ġpriest":6601,"Ġveget":6602,"Ġfamiliar":6603,"ĠMusic":6604,"Ġweapon":6605,"90":6606,"IV":6607,"Ġbunch":6608,"inging":6609,"Ġlone":6610,"Ġconfess":6611,"Ġsched":6612,"Looks":6613,"Ġsixty":6614,"Ġsolid":6615,"Ġhoping":6616,"Ġactivities":6617,"Ġappreciate":6618,"Col":6619,"FL":6620,"Hurry":6621,"Mother":6622,"OL":6623,"run":6624,"Ġonline":6625,"ĠHy":6626,"ession":6627,"Ġpregn":6628,"otton":6629,"Ġrealized":6630,"Ġ1988":6631,"Ġfilms":6632,"ĠTrans":6633,"Ġinnocent":6634,"TV":6635,"Ġbang":6636,"Ġpink":6637,"otic":6638,"lyn":6639,"ĠCa":6640,"tering":6641,"Ġsoil":6642,"emies":6643,"ardens":6644,"Ġbrings":6645,"196":6646,"Ġengaged":6647,"looking":6648,"ĠShakespeare":6649,"Ġprofessor":6650,"Ġburned":6651,"Ġapartment":6652,"iggler":6653,"Gl":6654,"also":6655,"ĠBon":6656,"ĠDor":6657,"Ġlegend":6658,"bridge":6659,"Ġ80":6660,"Anything":6661,"ĠEmperor":6662,"Ġdetermined":6663,"Ġhomes":6664,"100":6665,"Up":6666,"Ġbite":6667,"ĠTri":6668,"ĠRaj":6669,"ĠFar":6670,"Ġsuck":6671,"Ġ(;":6672,"ĠKong":6673,"Ġmayor":6674,"Ġarticle":6675,"Ġwondering":6676,"Ġcrossed":6677,"Ġordinary":6678,"Ġjuice":6679,"Fran":6680,"Ġow":6681,"Ġdish":6682,"Ġdarling":6683,"Ġreck":6684,"ĠLight":6685,"ĠJon":6686,"ĠEll":6687,"Ġcock":6688,"Ġclever":6689,"coln":6690,"Ġlimit":6691,"Ġscientific":6692,"ĠPakistan":6693,"ĠZealand":6694,"Cor":6695,"sur":6696,"Ġborder":6697,"Ġfeature":6698,"Ġgoodness":6699,"Ġconscious":6700,"Ġrooms":6701,"box":6702,"ĠCalvad":6703,"Ġlaunched":6704,"Ġseriously":6705,"ĠCalvados":6706,"Big":6707,"Ġfancy":6708,"esh":6709,"owder":6710,"uther":6711,"stant":6712,"ĠME":6713,"three":6714,"ĠOk":6715,"Ġunus":6716,"Ġcheap":6717,"Ġ1979":6718,"Ġsolve":6719,"ENT":6720,"fortunately":6721,"UL":6722,"jan":6723,"rd":6724,"rich":6725,"Ġwise":6726,"Ġsales":6727,"Ġbatter":6728,"riz":6729,"Ġupper":6730,"Ġwithd":6731,"iffe":6732,"ĠBru":6733,"andom":6734,"ĠFour":6735,"Ġroot":6736,"hess":6737,"Ġcrown":6738,"Ġincred":6739,"ĠIsrael":6740,"Ġcontinues":6741,"Ġincreasing":6742,"Ġresponsibility":6743,"Ġphilosophy":6744,"Ġinstrument":6745,"Last":6746,"Mart":6747,"Ġtone":6748,"iments":6749,"Ġnoted":6750,"ĠFestival":6751,"hang":6752,"Ġfinds":6753,"Ġadditional":6754,"Ġ1982":6755,"Ġislands":6756,"ĠTommy":6757,"ĠWilliams":6758,"Ġcircumstances":6759,"500":6760,"Again":6761,"mother":6762,"ser":6763,"zer":6764,"ript":6765,"ĠAccording":6766,"ĠPa":6767,"ĠTed":6768,"ĠFOR":6769,"their":6770,"ection":6771,"Ġcourage":6772,"Ġstands":6773,"Ġlevels":6774,"Ġdisappoint":6775,"ĠPortug":6776,"IGHT":6777,"five":6778,"sw":6779,"ti":6780,"Ġgather":6781,"ĠSom":6782,"Ġugly":6783,"ĠHan":6784,"olt":6785,"izations":6786,"ranch":6787,"Ġsuffering":6788,"ĠAtlantic":6789,"Ġlibrary":6790,"Care":6791,"rad":6792,"Ġwitch":6793,"ĠFort":6794,"Ġprepar":6795,"Ġrelax":6796,"ologist":6797,"Ġframe":6798,"Ġ1984":6799,"ĠJohnson":6800,"Ġhandsome":6801,"Ġcommonly":6802,"Ġconcern":6803,"Ġanti":6804,"Ġsurvive":6805,"Ġchallenge":6806,"Ġfalse":6807,"Des":6808,"Sec":6809,"ares":6810,"inter":6811,"ĠWend":6812,"ĠLife":6813,"Ġconqu":6814,"Ġplate":6815,"Ġgotten":6816,"Ġclient":6817,"ĠBrother":6818,"ĠZiggler":6819,"Ġgovernor":6820,"Ġfalls":6821,"ĠCommission":6822,"Ġconcert":6823,"Ġrecognized":6824,"conscious":6825,"Ġexchange":6826,"45":6827,"Ã¤":6828,"Ġaim":6829,"Ġwished":6830,"ĠRural":6831,"Ġconsequ":6832,"Ġexact":6833,"Ġcompon":6834,"Ġattended":6835,"Ġstring":6836,"Ġdiscover":6837,"Ġpainting":6838,"rilliant":6839,"ĠJersey":6840,"36":6841,"Dan":6842,"David":6843,"turn":6844,"Ġdust":6845,"Ġpool":6846,"ĠCam":6847,"Ġatm":6848,"ĠRoll":6849,"ĠNavy":6850,"Ġspell":6851,"ĠVen":6852,"Ġdescend":6853,"Ġdistinct":6854,"okes":6855,"Ġsentence":6856,"Ġlegisl":6857,"cript":6858,"force":6859,"lause":6860,"Ġefforts":6861,"Ġwaited":6862,"ĠJewish":6863,"Ġsenior":6864,"ĠConfeder":6865,"KE":6866,"life":6867,"uce":6868,"Åį":6869,"Ġdies":6870,"Ġlake":6871,"asp":6872,"Ġhi":6873,"ĠAv":6874,"ĠCO":6875,"Ġunt":6876,"ĠBern":6877,"Ġrac":6878,"ĠNic":6879,"Ġearned":6880,"Ġcapac":6881,"Ġtrail":6882,"Ġexistence":6883,"Ġagreement":6884,"hu":6885,"point":6886,"Ġsons":6887,"iculous":6888,"ĠSup":6889,"rose":6890,"Ġriding":6891,"ĠNick":6892,"ĠNorthern":6893,"ivered":6894,"----":6895,"Ġapparently":6896,"ĠUncle":6897,"Ġeleven":6898,"Ġelements":6899,"Ġintegr":6900,"Ġ1987":6901,"ĠFrances":6902,"38":6903,"Too":6904,"uart":6905,"works":6906,"Ġta":6907,"Ġhabit":6908,"Ġancest":6909,"ĠDaw":6910,"Ġvia":6911,"akh":6912,"Ġintended":6913,"Ġcritical":6914,"Ġrecognize":6915,"Jim":6916,"Life":6917,"only":6918,"Ġtow":6919,"oto":6920,"ĠMiddle":6921,"ĠTy":6922,"ĠTam":6923,"ĠOl":6924,"ague":6925,"Ġspect":6926,"inson":6927,"Ġrefused":6928,"ĠHarry":6929,"Ġestablish":6930,"Ġcousin":6931,"ĠOxford":6932,"Comm":6933,"Frank":6934,"bly":6935,"wow":6936,"Ġwounded":6937,"Ġowe":6938,"Ġdu":6939,"ĠOcean":6940,"Ġcontest":6941,"Ġdecisions":6942,"ARR":6943,"ĠOrder":6944,"ĠFilm":6945,"Ed":6946,"TING":6947,"four":6948,"eaks":6949,"Ġrot":6950,"Ġallows":6951,"ĠRick":6952,"ĠEastern":6953,"hmm":6954,"Ġgarage":6955,"Ġassistant":6956,"26":6957,"Down":6958,"fish":6959,"mond":6960,"ê¯":6961,"Ġwha":6962,"Ġwore":6963,"Ġdun":6964,"Ġtower":6965,"Their":6966,"ĠHea":6967,"Ġorange":6968,"perial":6969,"avar":6970,"Ġacad":6971,"phant":6972,"Eh":6973,"OY":6974,"UD":6975,"Ġille":6976,"onic":6977,"ĠInt":6978,"ĠIrish":6979,"Ġhidden":6980,"ĠHave":6981,"usted":6982,"ĠTre":6983,"ĠTimes":6984,"ĠDra":6985,"ĠJones":6986,"raham":6987,"Ġvalley":6988,"ierce":6989,"Ġsorts":6990,"hibition":6991,"Ġhunting":6992,"Four":6993,"got":6994,"gues":6995,"Ã´":6996,"Ġsed":6997,"Ġfolk":6998,"Ġinqu":6999,"ĠRh":7000,"ĠEven":7001,"Ġjustice":7002,"eps":7003,"Ġspare":7004,"bec":7005,"Ġhappiness":7006,"Ġflood":7007,"Ġcommission":7008,"Ġ1971":7009,"Ġcorpor":7010,"Ġphoto":7011,".[":7012,"Em":7013,"Im":7014,"cos":7015,"Ġmort":7016,"Ġdread":7017,"Ġho":7018,"Ġweb":7019,"ĠFe":7020,"Ġthrown":7021,"Ġfriendly":7022,"ĠBrad":7023,"Ġsympt":7024,"Ġpointed":7025,"Ġ64":7026,"Ġdevil":7027,"ĠService":7028,"Ġconnect":7029,"Ġcombination":7030,"ĠCastle":7031,"Ġterritory":7032,"rell":7033,"era":7034,"Ġpa":7035,"Ġheight":7036,"andal":7037,"aints":7038,"elle":7039,"ĠNorm":7040,"inking":7041,"asts":7042,"ometimes":7043,"alem":7044,"ĠRomanized":7045,"Ġrepeated":7046,"Geor":7047,"mat":7048,"tle":7049,"ouri":7050,"ĠHal":7051,"Ġsav":7052,"Ġproced":7053,"Ġobvious":7054,"Ġofficially":7055,"Ġcreating":7056,"ĠPete":7057,"Shall":7058,"cont":7059,"erest":7060,"gian":7061,"hew":7062,"Ġmood":7063,"Ġnut":7064,"icy":7065,"imal":7066,"Ġselected":7067,"Ġshook":7068,"Ġagric":7069,"ordon":7070,"ĠViet":7071,"ultural":7072,"Ġcommitted":7073,"Ġaccomp":7074,"ĠAndrew":7075,"Ġidiot":7076,"Ġexped":7077,"going":7078,"LAUGH":7079,"ĠSecond":7080,"Ġdegrees":7081,"itzerland":7082,"IE":7083,"miss":7084,"asmus":7085,"Ġhired":7086,"ĠSur":7087,"chief":7088,"ĠPlease":7089,"ĠRom":7090,"Ġworship":7091,"ĠEach":7092,"Ġshake":7093,"Ġcriminal":7094,"Ġacid":7095,"gery":7096,"Ġnearby":7097,"Ġestate":7098,"ĠCommittee":7099,"Ġcomplicated":7100,"Ġliterature":7101,"Ġscientists":7102,"Bob":7103,"OB":7104,"based":7105,"nce":7106,"Ġcute":7107,"Ġpages":7108,"arant":7109,"ĠAN":7110,"ĠCab":7111,"ĠHind":7112,"ĠBoth":7113,"ĠDave":7114,"Ġplot":7115,"Ġflow":7116,"Ġmoves":7117,"Ġimportance":7118,"Ġ1981":7119,"ronic":7120,"Ġsteal":7121,"ĠForce":7122,"Ġvalues":7123,"aimed":7124,"Ġeffective":7125,"ealous":7126,"Move":7127,"Ste":7128,"].":7129,"ooth":7130,"ĠÎ":7131,"Ġfishing":7132,"Ġlocked":7133,"Ġstir":7134,"Ġaside":7135,"ĠPic":7136,"ĠTra":7137,"ieve":7138,"Ġevolution":7139,"Ġmedal":7140,"asked":7141,"Ġreferred":7142,"Ġseventy":7143,"happy":7144,"Cha":7145,"Turn":7146,"mom":7147,"pers":7148,"rets":7149,"lend":7150,"ĠMir":7151,"those":7152,"ĠDet":7153,"Ġdeck":7154,"ĠGal":7155,"ĠRam":7156,"ĠFox":7157,"Ġproved":7158,"cahedron":7159,"ERS":7160,"Ġexplained":7161,"cription":7162,"Ġreports":7163,"ĠEnter":7164,"\"),":7165,"Ant":7166,"lav":7167,"Ã¢":7168,"ingly":7169,"umes":7170,"ĠJr":7171,"ĠStan":7172,"Ġque":7173,"Ġsurely":7174,"Ġgeneration":7175,"Ġmillions":7176,"Ġcommunities":7177,"Ġconvin":7178,"writer":7179,"IFA":7180,"ĠMazra":7181,"',":7182,"called":7183,"iat":7184,"oz":7185,"Ġaunt":7186,"Ġmole":7187,"Ġdozen":7188,"olen":7189,"Ġarmed":7190,"Ġfeather":7191,"Ġenemies":7192,"Ġelev":7193,"Ġexplos":7194,"Ġdealing":7195,"Ġsoftware":7196,"APTER":7197,"ĠBerlin":7198,"ĠWendy":7199,"san":7200,"Ġsisters":7201,"ario":7202,"athy":7203,"celer":7204,"ĠLab":7205,"Ġsale":7206,"Ġtruly":7207,"Ġcompared":7208,"Ġbuying":7209,"Ġ180":7210,"Ġharder":7211,"Ġretire":7212,"Ġinterpret":7213,"Also":7214,"ĠOnly":7215,"Ġvector":7216,"ĠCharl":7217,"Ġhealthy":7218,"Ġempire":7219,"ĠRevolution":7220,"ĠMazraeh":7221,"Spe":7222,"iser":7223,"ĠAli":7224,"Ġtheme":7225,"iley":7226,"liver":7227,"Ġattitude":7228,"Ġsymp":7229,"hmad":7230,"Ġ1976":7231,"Ġbeneath":7232,"Brother":7233,"Boy":7234,"Pol":7235,"eau":7236,"Ġrhy":7237,"Ġrandom":7238,"ĠNap":7239,"Ġsuicide":7240,"eping":7241,"Ġarrang":7242,"cip":7243,"Ġ32":7244,"ĠBefore":7245,"Ġequals":7246,"ervative":7247,"Ġtouched":7248,"Ġdarkness":7249,"........":7250,"ĠEdward":7251,"Ġbelongs":7252,"Ġglasses":7253,"Ġdepends":7254,"Pre":7255,"RUN":7256,"pired":7257,"worth":7258,"itors":7259,"Ġlion":7260,"Ġlift":7261,"Ġrang":7262,"ĠUp":7263,"ĠArthur":7264,"appy":7265,"Ġproperly":7266,"ĠIslands":7267,"Ġemergency":7268,"ĠLincoln":7269,"Ġscarce":7270,"ropriate":7271,"Master":7272,"foot":7273,"met":7274,"ĠCross":7275,"unte":7276,"ĠWI":7277,"ender":7278,"hildren":7279,"certain":7280,"Ġsimpl":7281,"Ġcolors":7282,"Ġspending":7283,"Ġbathroom":7284,"Ġanalysis":7285,"Michael":7286,"32":7287,"NOW":7288,"Ġwound":7289,"ington":7290,"Ġdude":7291,"uties":7292,"unction":7293,"ĠGil":7294,"Ġunable":7295,"Ġhighway":7296,"Ġfuneral":7297,"195":7298,"Ġ1986":7299,"Ġsixth":7300,"Ġcreature":7301,"Ġdelay":7302,"adesh":7303,"39":7304,"BS":7305,"MA":7306,"TA":7307,"cr":7308,"comp":7309,"greg":7310,"lar":7311,"lock":7312,"ni":7313,"Ġfate":7314,"orney":7315,"Ġnest":7316,"ĠSH":7317,"ĠAis":7318,"ĠAunt":7319,"ĠMen":7320,"ĠHu":7321,"ĠDun":7322,"Ġshel":7323,"ĠOut":7324,"ĠKim":7325,"care":7326,"Ġwhenever":7327,"aze":7328,"Ġrevolution":7329,"Ġdescribe":7330,"CHAPTER":7331,"Ġdisappear":7332,"Ġreviews":7333,"Ġnumerous":7334,"ĠSupreme":7335,"iri":7336,"Ġtort":7337,"isms":7338,"Ġmental":7339,"Ġtoile":7340,"Ġhm":7341,"ĠSand":7342,"Ġplastic":7343,"ags":7344,"ogue":7345,"ipment":7346,"Ġscript":7347,"Ġwinner":7348,"Ġhorrible":7349,"Ġcruel":7350,"Ġinvestigation":7351,"Bar":7352,"Ġtur":7353,"Ġhorn":7354,"ĠSel":7355,"Ġwhist":7356,"ĠDuke":7357,"ĠEst":7358,"Ġlecture":7359,"ĠClass":7360,"Ġsteam":7361,"Ġenjoyed":7362,"ĠRecords":7363,"give":7364,"hot":7365,"ĠSong":7366,"sex":7367,"hers":7368,"ĠHome":7369,"ĠHoly":7370,"ĠGall":7371,"ĠGame":7372,"osal":7373,"ela":7374,"ĠUh":7375,"ava":7376,"Ġera":7377,"Ġnights":7378,"Ġ1985":7379,"ĠBeach":7380,"Ġmarked":7381,"Ġprotest":7382,"ĠBoard":7383,"AVE":7384,"LES":7385,"sar":7386,"Ġborrow":7387,"Ġpity":7388,"Ġnominated":7389,"Ġconce":7390,"ĠNE":7391,"Ġexcellent":7392,"Ġdraft":7393,"Ġairport":7394,"Ġ1964":7395,"Ġeighty":7396,"mma":7397,"ĠCoast":7398,"garet":7399,"Ġtools":7400,"Ġstole":7401,"ĠAT":7402,"ĠTim":7403,"ĠWater":7404,"Ġvent":7405,"enses":7406,"Ġtalks":7407,"ddie":7408,"Ġmerchant":7409,"rogen":7410,"Ġwoods":7411,"Ġpleasant":7412,"Ġpotential":7413,"Ġinjury":7414,"Ġrecommend":7415,"99":7416,"wich":7417,"orial":7418,"ĠAny":7419,"ĠRich":7420,"ĠNether":7421,"ĠEs":7422,"ĠVice":7423,"ĠIntern":7424,"aws":7425,"Ġcollea":7426,"ĠAtt":7427,"Ġrecording":7428,"Ġclosely":7429,"Ġstronger":7430,"ĠSwitzerland":7431,"Ġapplication":7432,"Ġindependence":7433,"Ġswimming":7434,"Ġinstructions":7435,"Ġwebsite":7436,"mes":7437,"occ":7438,"rot":7439,"Ġticket":7440,"Ġyard":7441,"unior":7442,"Ġ\"\"":7443,"ĠOffic":7444,"Ġcomposed":7445,"Ġeditor":7446,"Ġ1978":7447,"ĠGermans":7448,"Ġpainted":7449,"Ġcommunication":7450,"Ġbuddy":7451,"Sim":7452,"note":7453,"Â°":7454,"onne":7455,"Ġchampion":7456,"Ġfolks":7457,"ĠAdd":7458,"ĠCub":7459,"Ġtrains":7460,"Ġphr":7461,"Ġbadly":7462,"apped":7463,"door":7464,"Ġopera":7465,"Ġoperating":7466,"Ġexciting":7467,"Ġadvanced":7468,"Ġstatistics":7469,"ĠTurk":7470,"Je":7471,"Run":7472,"Whe":7473,"hai":7474,"Ġtoys":7475,"ĠIda":7476,"alo":7477,"Ġrear":7478,"ĠMonday":7479,"ĠFIFA":7480,"venue":7481,"gging":7482,"ĠArch":7483,"Ġdrag":7484,"ipping":7485,"Ġcooking":7486,"Ġperman":7487,"Ġlonely":7488,"Ġatmosphere":7489,"37":7490,"mouth":7491,"Ġtear":7492,"Ġok":7493,"Ġpale":7494,"arl":7495,"irus":7496,"ĠMid":7497,"ĠDam":7498,"Ġspr":7499,"thew":7500,"Ġcommit":7501,"ĠChris":7502,"onto":7503,"Ġ500":7504,"Ġ1983":7505,"ropol":7506,"Ġexplan":7507,"Ġdefin":7508,"ĠMissouri":7509,"Ġruled":7510,"Ġphotograph":7511,"Ġidentity":7512,"Ġobserved":7513,"ĠTurkey":7514,"Ġenvironmental":7515,"ĠAssy":7516,"BA":7517,"Ill":7518,"pass":7519,"encies":7520,"allel":7521,"ĠHas":7522,"class":7523,"into":7524,"Ġsyn":7525,"ĠAlthough":7526,"Ġdecor":7527,"chester":7528,"Ġburning":7529,"glas":7530,"ĠFrancisco":7531,"quarters":7532,"bage":7533,"iac":7534,"Ġmile":7535,"Ġdumb":7536,"asters":7537,"achel":7538,"ĠRoss":7539,"ĠNight":7540,"Ġapply":7541,"Ġregret":7542,"Ġcenturies":7543,"bsolutely":7544,"Ġillust":7545,"Ġtracks":7546,"ĠJean":7547,"Ġadopted":7548,"Fin":7549,"Ġcert":7550,"otte":7551,"oof":7552,"ĠAy":7553,"haniel":7554,"Ġbutt":7555,"Ġvision":7556,"weight":7557,"ova":7558,"Ġcrash":7559,"ilding":7560,"Ġedition":7561,"ĠSteve":7562,"Ġsucceeded":7563,"ĠJacob":7564,"Ġrestaurant":7565,"Rob":7566,"Yep":7567,"bits":7568,"Ġtub":7569,"Ġpuzz":7570,"omy":7571,"Ġmeal":7572,"geon":7573,"itty":7574,"Ġ36":7575,"Ġ184":7576,"Ġfactory":7577,"Ġ1973":7578,"Ġreflect":7579,"Ġequipment":7580,"Ġengineering":7581,"Ġapplied":7582,"Ġmethods":7583,"Ġcycle":7584,"Ġfrightened":7585,"ĠSidney":7586,"uy":7587,"wait":7588,"Ġfans":7589,"Ġreference":7590,"Ġstab":7591,"Ġanger":7592,"ĠBattle":7593,"ĠBudd":7594,"Ġath":7595,"uls":7596,"Ġdevice":7597,"osis":7598,"ĠLuc":7599,"Ġkeys":7600,"Ġdesert":7601,"Ġending":7602,"Ġincome":7603,"Ġ1975":7604,"Ġ1930":7605,"Î¿u":7606,"Ġridiculous":7607,"Ġromantic":7608,"ĠGeorgia":7609,"Both":7610,"cut":7611,"Ġbon":7612,"Ġdump":7613,"Ġnick":7614,"Ġbeating":7615,"ĠBank":7616,"ĠGrey":7617,"Ġprovin":7618,"ĠGuard":7619,"Ġvolume":7620,"Ġexamples":7621,"Ġmoral":7622,"Ġconduct":7623,"Ġbabies":7624,"Henry":7625,"every":7626,"Ġfart":7627,"organ":7628,"verted":7629,"irs":7630,"ĠHolly":7631,"ĠBab":7632,"ĠTest":7633,"Ġsufficient":7634,"Ġven":7635,"agger":7636,"Ġtrained":7637,"Ġspo":7638,"ensions":7639,"Ġcovers":7640,"Ġcris":7641,"Ġacceler":7642,"Ġvisited":7643,"Ġconfused":7644,"Ġannual":7645,"Ġvictims":7646,"ĠBangl":7647,"Ġdiscipl":7648,"ĠAisne":7649,"great":7650,"lers":7651,"obe":7652,"Ġtorn":7653,"rete":7654,"Ġwo":7655,"Ġbul":7656,"ĠAD":7657,"ĠBush":7658,"ĠTang":7659,"Ġjealous":7660,"never":7661,"Ġoverall":7662,"Ġflash":7663,"Ġputs":7664,"ĠAlso":7665,"Ġ1974":7666,"Ġ1969":7667,"Ġsending":7668,"ĠElizabeth":7669,"Ġclaimed":7670,"Ġinitial":7671,"Ġunusual":7672,"Ma":7673,"inent":7674,"lets":7675,"Ġreject":7676,"ifying":7677,"ĠTa":7678,"unting":7679,"Ġconsult":7680,"oked":7681,"Ġincident":7682,"Ġfactor":7683,"Ġskills":7684,"Ġexpert":7685,"ĠManip":7686,"ursday":7687,"ĠSergeant":7688,"Ġindustrial":7689,"Ġshopping":7690,"Ġfleet":7691,"Ġrevealed":7692,"Ġscholars":7693,"Ġsymptoms":7694,"Foot":7695,"Ġtooth":7696,"athered":7697,"Ġlung":7698,"Ġreward":7699,"Ġgoals":7700,"ĠOver":7701,"Ġincor":7702,"Ġ1940":7703,"Ġcreation":7704,"Ġdefeat":7705,"Ġseparated":7706,"Ġmathemat":7707,"Ge":7708,"Mad":7709,"bal":7710,"gie":7711,"non":7712,"sen":7713,"than":7714,"uing":7715,"uable":7716,"Ġwand":7717,"Ġsan":7718,"Ġpushed":7719,"ĠTer":7720,"ĠLieutenant":7721,"ĠKat":7722,"ĠVal":7723,"Ġremaining":7724,"Ġimpress":7725,"attles":7726,"Ġinterests":7727,"Ġholds":7728,"Ġaircraft":7729,"coming":7730,"Ġauthorities":7731,"Ġmassive":7732,"Ġpermission":7733,"Ġregarded":7734,"hin":7735,"ycl":7736,"Ġ/":7737,"athan":7738,"ĠSub":7739,"ĠBow":7740,"ĠPers":7741,"ĠTem":7742,"ĠLand":7743,"Ġwanting":7744,"Ġsecure":7745,"Ġcricket":7746,"hamed":7747,"Ġregions":7748,"Ġentrance":7749,"Ġassume":7750,"ĠAnother":7751,"Ġmilit":7752,"Ġopposed":7753,"ĠAdam":7754,"Ġdifficulty":7755,"Ġdepth":7756,"Ġdawn":7757,"ĠPhilipp":7758,"Ġsurrounded":7759,"ĠDisney":7760,"Ġmobile":7761,"Ġcurious":7762,"respond":7763,"Ġapproximately":7764,"31":7765,"IL":7766,"Mon":7767,"kh":7768,"Å¡":7769,"Ġpension":7770,"aro":7771,"Ġnort":7772,"stal":7773,"ĠBBC":7774,"ĠLib":7775,"ĠNob":7776,"ĠVan":7777,"ĠInc":7778,"Ġcharged":7779,"Ġinterrupt":7780,"Ġdriven":7781,"Ġ1972":7782,"Ġprovides":7783,"Ġcontrovers":7784,"ĠAbout":7785,"maybe":7786,"ĠOffice":7787,"intendo":7788,"à¦":7789,"Ġtalent":7790,"ouch":7791,"Ġcore":7792,"Ġgained":7793,"utation":7794,"ĠCont":7795,"ĠHol":7796,"ieur":7797,"Ġshift":7798,"oster":7799,"Ġgrade":7800,"Ġdesk":7801,"fecture":7802,"ounce":7803,"ONE":7804,"Ġclothing":7805,"Ġfortune":7806,"ĠKorean":7807,"Ġbalance":7808,"oogle":7809,"Five":7810,"Ġfo":7811,"Ġped":7812,"Ġdoctors":7813,"ĠGreg":7814,"Ġsoci":7815,"akers":7816,"Ġspite":7817,"Ġrode":7818,"Ġdeserve":7819,"ibi":7820,"ĠNews":7821,"Ġsubsequ":7822,"Ġimpression":7823,"ĠCla":7824,"engers":7825,"Ġmurdered":7826,"Ġlaunch":7827,"ĠMcC":7828,"evin":7829,"Ġjumped":7830,"Ġsources":7831,"ĠGreece":7832,"Ġvehicle":7833,"UM":7834,"fly":7835,"fire":7836,"lies":7837,"Ġing":7838,"Ġwaves":7839,"orage":7840,"Ġgor":7841,"ented":7842,"sters":7843,"stance":7844,"ador":7845,"ĠCro":7846,"Ġseed":7847,"eline":7848,"ateful":7849,"owned":7850,"Ġacts":7851,"Ġmargin":7852,"Ġboom":7853,"Ġinstant":7854,"Ġsitu":7855,"Ġmusician":7856,"Ġladder":7857,"Ġburst":7858,"Ġaffected":7859,"Ġadministr":7860,"Ġpregnant":7861,"Ġgrey":7862,"apore":7863,"hings":7864,"Ġacted":7865,"onsense":7866,"Ġrelation":7867,"plement":7868,"Ġbits":7869,"ĠIndians":7870,"Ġ1968":7871,"Ġdemocr":7872,"rayed":7873,"Ġobjects":7874,"Ġmirror":7875,"Saint":7876,"iture":7877,"Ġreign":7878,"ĠAp":7879,"Ġactions":7880,"avan":7881,"clusion":7882,"Ġstudying":7883,"Ġassign":7884,"Ġcapable":7885,"Ġpossibility":7886,"Ġoccas":7887,"Ġchecked":7888,"ĠDanny":7889,"Ġiniti":7890,"Ġgoddess":7891,"ĠDirector":7892,"ĠStephen":7893,"ifferent":7894,"FC":7895,"case":7896,"Ġbrilliant":7897,"Ġcats":7898,"Ġyo":7899,"Ġrein":7900,"ĠHong":7901,"ĠBalt":7902,"andie":7903,"ĠDi":7904,"hoot":7905,"upon":7906,"azed":7907,"Ġlisted":7908,"Ġleads":7909,"Ġhorror":7910,"ennes":7911,"Ġviews":7912,"Ġgrav":7913,"chers":7914,"Ġliterally":7915,"Ġwidely":7916,"Ġrevenge":7917,"ducation":7918,"Show":7919,"Ten":7920,"take":7921,"Ġbones":7922,"etime":7923,"Ġrefe":7924,"ĠCD":7925,"ĠBook":7926,"Ġrings":7927,"ĠEric":7928,"Ġboats":7929,"ĠAlice":7930,"Ġdrinks":7931,"Ġ1945":7932,"Ġvideos":7933,"ĠSystem":7934,"Ġearthqu":7935,"Ġbenefits":7936,"Ġdistricts":7937,"elphia":7938,"Ġsacred":7939,"Ġceremony":7940,"Ġescaped":7941,"Cong":7942,"NO":7943,"first":7944,"vo":7945,"Ġwra":7946,"Ġstress":7947,"Ġknocked":7948,"ĠRyan":7949,"ĠNan":7950,"emet":7951,"ĠJill":7952,"Ġguarant":7953,"Ġelephant":7954,"Ġconsists":7955,"Ġstranger":7956,"Ġissued":7957,"Ġpractical":7958,"IST":7959,"Ġcultural":7960,"Ġreduced":7961,"Ġwaters":7962,"Grand":7963,"Ġsuffer":7964,"Ġinhabitants":7965,"little":7966,"mic":7967,"Ġben":7968,"Ġment":7969,"Ġfuel":7970,"ete":7971,"ĠSon":7972,"ĠSab":7973,"adelphia":7974,"Ġstolen":7975,"earch":7976,"Ġuns":7977,"aughters":7978,"Ġprogramme":7979,"aska":7980,"Ġcops":7981,"Ġinvestment":7982,"Ġindividuals":7983,"Ġcapture":7984,"Ġdebt":7985,"Ġgraduated":7986,"Ġtypical":7987,"Ġpilot":7988,"bb":7989,"uv":7990,"Ġtip":7991,"eable":7992,"ĠTop":7993,"ulse":7994,"Ġneut":7995,"umble":7996,"ĠNintendo":7997,"Ġprofit":7998,"ĠEle":7999,"aks":8000,"Ġmonster":8001,"Ġ150":8002,"Ġdelivered":8003,"Ġroads":8004,"hampionships":8005,"Ġnecessarily":8006,"Ġblocks":8007,"ĠTaiwan":8008,"Ġastron":8009,"Normandie":8010,"NE":8011,"Robert":8012,"Time":8013,"bach":8014,"Ġwire":8015,"Ġcrap":8016,"ĠIra":8017,"Ġeager":8018,"abs":8019,"Ġarts":8020,"ATOR":8021,"Ġtemple":8022,"Ġcopies":8023,"Ġvert":8024,"Ġcombined":8025,"Ġhoped":8026,"Ġadministration":8027,"ĠVictoria":8028,"Ġneighborhood":8029,"Mus":8030,"kind":8031,"name":8032,"vior":8033,"Ġtale":8034,"Ġsought":8035,"Ġfasc":8036,"Ġfestival":8037,"enly":8038,"esome":8039,"ompl":8040,"rix":8041,"ĠAk":8042,"ĠMah":8043,"urg":8044,"una":8045,"Ġrush":8046,"ĠDav":8047,"ĠOliver":8048,"ousing":8049,"orders":8050,"Ġowners":8051,"Ġregional":8052,"Ġswall":8053,"ounced":8054,"Ġpassage":8055,"ĠAsh":8056,"Ġequation":8057,"Ġshortly":8058,"arring":8059,"Ġvoices":8060,"III":8061,"ĠColonel":8062,"Ġmachines":8063,"Ġtender":8064,"ĠBasse":8065,"ĠNetherlands":8066,"Little":8067,"Peter":8068,"Sw":8069,"could":8070,"dog":8071,"gust":8072,"pol":8073,"uer":8074,"zy":8075,"Ġmart":8076,"Ġfed":8077,"Ġtomb":8078,"Ġpants":8079,"Ġloyal":8080,"oti":8081,"Ġitems":8082,"irmed":8083,"ilton":8084,"ĠWalk":8085,"iami":8086,"Ġconfidence":8087,"Ġtrem":8088,"Ġversions":8089,"ĠJustice":8090,"Ġprincipal":8091,"ĠRadio":8092,"ĠColumbia":8093,"Ġtoilet":8094,"33":8095,"BO":8096,"HL":8097,"fin":8098,"ygen":8099,"Ġbom":8100,"Ġmama":8101,"esse":8102,"ati":8103,"Ġsplend":8104,"Ġguests":8105,"Ġremove":8106,"Doctor":8107,"Ġaccompl":8108,"Ġmoments":8109,"Ġbreast":8110,"Ġ1963":8111,"Ġestim":8112,"Ġsnake":8113,"ĠRepresent":8114,"Ġfairy":8115,"Ġdevices":8116,"Ġverte":8117,"Ġprisoners":8118,"Ġpersons":8119,"ĠWilson":8120,"Ã³n":8121,"Ġstruggle":8122,"emetery":8123,"Co":8124,"Int":8125,"RY":8126,"Ġpupp":8127,"kel":8128,"ĠBus":8129,"Ġconclud":8130,"Ġexha":8131,"Ġours":8132,"derer":8133,"Step":8134,"Ġpersonally":8135,"rows":8136,"Somebody":8137,"Ġfigured":8138,"Ġbowl":8139,"nesday":8140,"ĠChannel":8141,"ĠSingapore":8142,"Ġsatisfied":8143,"ĠAdmiral":8144,"Ġshadow":8145,"bra":8146,"cus":8147,"iency":8148,"net":8149,"tell":8150,"Ġmud":8151,"Ġmamm":8152,"Ġinfect":8153,"Ġnaked":8154,"ĠSC":8155,"ĠTok":8156,"unts":8157,"Ġrising":8158,"Ġjew":8159,"ĠRon":8160,"Ġrope":8161,"Ġprote":8162,"Ġimplement":8163,"Ġscenes":8164,"Ġpersonality":8165,"Ġdiscovery":8166,"Ġparish":8167,"Ġmarks":8168,"Ġbesides":8169,"ĠRailway":8170,"Ġmaiden":8171,"Ġgranted":8172,"ĠSweden":8173,"Jo":8174,"made":8175,"oard":8176,"Â´":8177,"ãĥ":8178,"ĠCho":8179,"ĠBrian":8180,"Ġvast":8181,"ĠOs":8182,"Ġcontext":8183,"Ġslide":8184,"Ġsurgery":8185,"Ġstrate":8186,"Ġinsult":8187,"Ġcontrolled":8188,"Ġ1947":8189,"Ġorganized":8190,"Ġdiscussion":8191,"Ġbranches":8192,"ĠMetro":8193,"Ġpollution":8194,"Ġnuclear":8195,"Pres":8196,"bro":8197,"Ġaid":8198,"itched":8199,"Ġbike":8200,"asha":8201,"ĠSP":8202,"ĠScience":8203,"ooh":8204,"ctive":8205,"Ġknees":8206,"Ġrice":8207,"ĠGre":8208,"Were":8209,"ĠArts":8210,"Ġextended":8211,"Ġhearts":8212,"uesday":8213,"Ġexplore":8214,"Ġbedroom":8215,"ĠSenator":8216,"ĠAlexander":8217,"Ġbegun":8218,"Ġdemonstr":8219,"ĠWalter":8220,"Ġliquid":8221,"Ġanswers":8222,"Ġarranged":8223,"Aye":8224,"Alex":8225,"Bel":8226,"CT":8227,"bird":8228,"ui":8229,"vor":8230,"itter":8231,"Ġchampionship":8232,"eness":8233,"Ġtoast":8234,"Ġnurse":8235,"ĠCop":8236,"ĠCape":8237,"Ġjury":8238,"uda":8239,"inton":8240,"Ġshoulders":8241,"Ġsmiled":8242,"Ġ300":8243,"Ġchildhood":8244,"ĠArk":8245,"ĠArgent":8246,"Stand":8247,"Ġbitter":8248,"Ġphotos":8249,"Ġideal":8250,"Ġemotions":8251,"Ġintellect":8252,"Ġalternative":8253,"Ġstrategy":8254,"Ben":8255,"EM":8256,"OH":8257,"pent":8258,"pop":8259,"sl":8260,"erted":8261,"Ġpiss":8262,"ombe":8263,"usive":8264,"ĠSure":8265,"uled":8266,"ĠWhe":8267,"Ġ1920":8268,"Ġunlike":8269,"Ġteen":8270,"Ġglobal":8271,"Ġmeters":8272,"ĠConference":8273,"Ġelections":8274,"ĠChair":8275,"Ġkissed":8276,"Ġreduce":8277,"Ġanaly":8278,"Ġcomposer":8279,"ĠPicard":8280,"wind":8281,"Ġtries":8282,"Ġsoup":8283,"Ġfond":8284,"atures":8285,"Ġlately":8286,"Ġhockey":8287,"urches":8288,"ĠHay":8289,"thony":8290,"ĠNi":8291,"Ġnoble":8292,"Ġerror":8293,"ĠBridge":8294,"Ġinspired":8295,"Ġalongside":8296,"Ġ1944":8297,"ĠYOUR":8298,"aura":8299,"Ġmaximum":8300,"ĠDouglas":8301,"Ġabandoned":8302,"Talk":8303,"mail":8304,"erable":8305,"Ġpour":8306,"ĠCorn":8307,"ĠPen":8308,"olves":8309,"ĠWE":8310,"ĠDie":8311,"ĠGer":8312,"ĠLl":8313,"rak":8314,"Its":8315,"udge":8316,"Ġspons":8317,"ĠStuart":8318,"Ġcontem":8319,"ĠBrand":8320,"Ġdrives":8321,"Ġtransform":8322,"Ġreturning":8323,"ĠShah":8324,"Ġillness":8325,"suit":8326,"Ġexecutive":8327,"ĠErasmus":8328,"Ġemotional":8329,"Ġdespite":8330,"Ġarchitect":8331,"Ġmerely":8332,"Ġdomestic":8333,"Ġcandidate":8334,"95":8335,"BI":8336,"Besides":8337,"PP":8338,"Ã±":8339,"Ġwars":8340,"haw":8341,"Ġchamber":8342,"Ġgathered":8343,"Ġforb":8344,"ĠChi":8345,"ĠMD":8346,"ĠMaine":8347,"ĠRod":8348,"ĠNever":8349,"ĠOtt":8350,"ĠStation":8351,"Ġletting":8352,"Ġ37":8353,"Ġlistened":8354,"Ġminds":8355,"Ġpromoted":8356,"Ġ1967":8357,"Ġparliament":8358,"ĠAustria":8359,"Ġannoy":8360,"Probably":8361,"Ġelder":8362,"Until":8363,"Yo":8364,"po":8365,"rons":8366,"Ġcraw":8367,"aned":8368,"anks":8369,"Ġpeak":8370,"Ġlt":8371,"imb":8372,"ifts":8373,"ĠBad":8374,"through":8375,"ĠEve":8376,"ersonal":8377,"Ġaccur":8378,"Ġ1977":8379,"Ġ1965":8380,"Ġdiagn":8381,"Ġarchitecture":8382,"ĠMuhammad":8383,"ĠProtest":8384,"Ġpunishment":8385,"Bring":8386,"Follow":8387,"pite":8388,"Ġtack":8389,"Ġmal":8390,"Ġfab":8391,"Ġtoy":8392,"Ġyards":8393,"Ġnuts":8394,"ĠFire":8395,"aph":8396,"omething":8397,"Ġimages":8398,"Ġunderground":8399,"onsieur":8400,"Ġscored":8401,"Ġpositions":8402,"Ġoperated":8403,"Ġattacks":8404,"Ġvillages":8405,"Ġdepos":8406,"Ġclubs":8407,"Trans":8408,"Ġquietly":8409,"Ġsacrif":8410,"ĠBetty":8411,"ĠIdaho":8412,"Har":8413,"King":8414,"Six":8415,"anes":8416,"Ġgri":8417,"Ġrug":8418,"arts":8419,"ĠNet":8420,"iao":8421,"Ġhousehold":8422,"otted":8423,"Ġchart":8424,"Ġassault":8425,"Ġstrateg":8426,"ĠHoward":8427,"Ġparallel":8428,"Ġprofession":8429,"ratulations":8430,"Ġjacket":8431,"47":8432,"gers":8433,"woman":8434,"Ġfoss":8435,"atically":8436,"Ġhills":8437,"Ġthread":8438,"stan":8439,"ĠCroat":8440,"ifer":8441,"ĠHE":8442,"Ġatom":8443,"ules":8444,"ĠFord":8445,"ĠOw":8446,"Ġagents":8447,"oyd":8448,"Ġappropriate":8449,"ĠAssembly":8450,"Ġstepped":8451,"Ġcutting":8452,"ĠAbd":8453,"Ġcritics":8454,"phas":8455,"ĠPalace":8456,"Ġelectricity":8457,"Ġvotes":8458,"Super":8459,"Dear":8460,"General":8461,"lad":8462,"nor":8463,"oni":8464,"Ġfulf":8465,"ĠGa":8466,"igs":8467,"Ġthrone":8468,"Ġcommander":8469,"Ġsmiling":8470,"Ġwarning":8471,"Ġmeetings":8472,"Goodbye":8473,"amental":8474,"uki":8475,"Ġexisting":8476,"Ġsailed":8477,"Ġchairman":8478,"Ġintroduce":8479,"Ġspiritual":8480,"Ġheavily":8481,"Ġexplanation":8482,"Bill":8483,"cia":8484,"tan":8485,"Ġoption":8486,"Ġcooper":8487,"ednesday":8488,"icia":8489,"Ġhunt":8490,"Ġwashed":8491,"roid":8492,"irts":8493,"ordinary":8494,"velope":8495,"Ġrelief":8496,"ĠAnna":8497,"prise":8498,"Ġpurs":8499,"Ġreplace":8500,"Ġdollar":8501,"Ġphysics":8502,"ĠSarah":8503,"Ġpersu":8504,"Ġepisodes":8505,"Ġbehavior":8506,"Ġconstitution":8507,"ĠRoger":8508,"Ġcapacity":8509,"Absolutely":8510,"tes":8511,"uate":8512,"itled":8513,"Ġphen":8514,"Ġpump":8515,"Ġstim":8516,"Ġstairs":8517,"illing":8518,"Ġselect":8519,"osc":8520,"odge":8521,"people":8522,"icking":8523,"Ġheaded":8524,"pective":8525,"Ġdefense":8526,"Ġ1941":8527,"ĠCommander":8528,"Ġexpecting":8529,"Ġengineer":8530,"Ġvolunte":8531,"ĠMexican":8532,"ĠToronto":8533,"SPEAK":8534,"Ġdramatic":8535,"\"...":8536,"Hang":8537,"None":8538,"NARR":8539,"cried":8540,"Ġwashing":8541,"ĠCir":8542,"Ġkitt":8543,"Ġashamed":8544,"ĠBC":8545,"Ġalpha":8546,"ĠJay":8547,"asted":8548,"ciences":8549,"hedral":8550,"Ġcompar":8551,"Ġsets":8552,"ĠMargaret":8553,"ĠReally":8554,"OULD":8555,"ĠSocial":8556,"Ġalbums":8557,"Ġcrossing":8558,"ĠEmily":8559,"ĠNothing":8560,"Ġviolent":8561,"Daddy":8562,"Ġfrequently":8563,"Ġoxygen":8564,"ĠHonor":8565,"Ġexpedition":8566,"Find":8567,"Mary":8568,"Par":8569,"know":8570,"Ġdaughters":8571,"Ġinse":8572,"Ġefficient":8573,"lyne":8574,"ĠHAVE":8575,"ĠTan":8576,"Ġadding":8577,"Ġtreasure":8578,"Ġmessages":8579,"Ġdescription":8580,"Ġprojects":8581,"Ġpresidential":8582,"Ġsubjects":8583,"ĠPhiladelphia":8584,"Ġexperiences":8585,"George":8586,"NARRATOR":8587,"BY":8588,"Ken":8589,"mont":8590,"yard":8591,"Ġdow":8592,"eters":8593,"stru":8594,"Ġseats":8595,"ĠHit":8596,"ĠTake":8597,"agers":8598,"Ġcoordin":8599,"INE":8600,"ĠThus":8601,"Ġcolumn":8602,"ĠCentre":8603,"LAUS":8604,"Ġidentified":8605,"Black":8606,"Ġbaseball":8607,"Ġpirate":8608,"hello":8609,"Ġconvinced":8610,"48":8611,"Ow":8612,"gs":8613,"gic":8614,"Ġcod":8615,"Ġtool":8616,"usa":8617,"unes":8618,"Ġgrateful":8619,"Ġpartly":8620,"issa":8621,"Ġprecious":8622,"Ġdistingu":8623,"ĠIndones":8624,"Ġlesson":8625,"odecahedron":8626,"Without":8627,"Ġservant":8628,"William":8629,"Twenty":8630,"Footnote":8631,"ĠPicardie":8632,".&":8633,"Es":8634,"Hon":8635,"SH":8636,"Sy":8637,"oons":8638,"rin":8639,"Ġsam":8640,"onies":8641,"Ġdating":8642,"acher":8643,"ĠBible":8644,"uns":8645,"ĠWel":8646,"Ġneat":8647,"ĠDNA":8648,"abel":8649,"Ġgray":8650,"Ġpron":8651,"Ġcontained":8652,"ĠThursday":8653,"Ġsooner":8654,"Ġhated":8655,"Ġcorrespond":8656,"Ġdelicious":8657,"aughing":8658,"Ġmurderer":8659,"Ġproperties":8660,"Ġrailroad":8661,"ĠCorpor":8662,"Ġprepare":8663,"Ġaffair":8664,"Ġdocuments":8665,"Ġvacc":8666,"Ġillegal":8667,"Each":8668,"even":8669,"hus":8670,"rim":8671,"Ġcattle":8672,"lly":8673,"omed":8674,"oty":8675,"ĠBha":8676,"Ġworn":8677,"been":8678,"Ġdifferences":8679,"Ġformat":8680,"Ġcollabor":8681,"ĠJohnny":8682,"Ġreputation":8683,"Ġsites":8684,"Ġpicking":8685,"ĠLeon":8686,"Ġallowing":8687,"Ġabsor":8688,"Ġabsolute":8689,"ĠAirport":8690,"smith":8691,"Ġtelephone":8692,"Ġadults":8693,"Ġmystery":8694,"ĠDawson":8695,"dney":8696,"rison":8697,"Ġfaced":8698,"acc":8699,"Ġnotable":8700,"ĠBand":8701,"Ġrabbit":8702,"ĠLiber":8703,"iga":8704,"ema":8705,"Ġnowhere":8706,"hens":8707,"Ġsmooth":8708,"Ġlanded":8709,"ĠAllen":8710,"Ġadvoc":8711,"Ġapproved":8712,"Ġtesting":8713,"Ġessentially":8714,"Ġexperienced":8715,"Phil":8716,"Rel":8717,"pur":8718,"Ġwicked":8719,"ori":8720,"Ġpant":8721,"Ġthir":8722,"Ġash":8723,"Ġasks":8724,"cho":8725,"ĠFair":8726,"Ġprosec":8727,"agne":8728,"Ġenorm":8729,"ixon":8730,"fulness":8731,"Ġ48":8732,"Ġcausing":8733,"Ġextend":8734,"ARD":8735,"Ġfriendship":8736,"Ġnaturally":8737,"ĠTeam":8738,"Ġcollected":8739,"bourne":8740,"Ġinitially":8741,"ĠHawai":8742,"ĠSanta":8743,"Ġlatest":8744,"Want":8745,"rum":8746,"uji":8747,"Ġtheatre":8748,"Ġfer":8749,"Ġhits":8750,"Ġbeings":8751,"riel":8752,"Ġstable":8753,"Ġstones":8754,"ĠBilly":8755,"ĠPower":8756,"oli":8757,"ĠWas":8758,"ĠWAS":8759,"rying":8760,"pei":8761,"Ġtwin":8762,"Ġinvasion":8763,"Ġstops":8764,"Ġoblig":8765,"Ġprobability":8766,"Ġpurple":8767,"Ġadmitted":8768,"Ġdipl":8769,"Ġstarred":8770,"Ġprinciple":8771,"Ġpossession":8772,"Ġprecise":8773,"LRB":8774,"Yet":8775,"div":8776,"fa":8777,"lims":8778,"pack":8779,"pool":8780,"heme":8781,"isk":8782,"orious":8783,"enote":8784,"attered":8785,"ĠSin":8786,"outs":8787,"outheast":8788,"alling":8789,"ĠHard":8790,"opher":8791,"eaut":8792,"ĠPublic":8793,"ĠGib":8794,"istol":8795,"udes":8796,"Ġages":8797,"Ġspoon":8798,"Ġbrid":8799,"gines":8800,"Ġcourts":8801,"Ġpasses":8802,"Ġlargely":8803,"Ġpulling":8804,"Ġbreathing":8805,"Ġpurposes":8806,"ĠSimon":8807,"Ġsustain":8808,"RRB":8809,"die":8810,"Ġtank":8811,"Ġooh":8812,"Ġpipe":8813,"sea":8814,"...!":8815,"Ġchrist":8816,"Ġcharges":8817,"Ġsingles":8818,"Ġextent":8819,"Ġequival":8820,"Ġdefined":8821,"chae":8822,"Ġappointment":8823,"ĠCampbell":8824,"Sidenote":8825,"ĠBruce":8826,"Brit":8827,"laughter":8828,"Ġtropical":8829,"Ġbone":8830,"oration":8831,"Ġlover":8832,"Ġnit":8833,"icians":8834,"Ġthorough":8835,"ĠCy":8836,"ĠHospital":8837,"ĠPop":8838,"ĠFC":8839,"Ġnewly":8840,"Ġformal":8841,"ĠDeath":8842,"Ġmodels":8843,"ĠBeat":8844,"Ġamongst":8845,"ĠDaddy":8846,"Doesn":8847,"Ġdedicated":8848,"ennessee":8849,"Lou":8850,"Long":8851,"Mc":8852,"Part":8853,"zing":8854,"Ã£":8855,"Ã§":8856,"Ġwow":8857,"orig":8858,"aser":8859,"ĠSk":8860,"rive":8861,"ĠAS":8862,"ĠMY":8863,"Ġsheet":8864,"ĠOper":8865,"ĠUP":8866,"arks":8867,"Ġattached":8868,"Ġheadquarters":8869,"ibilities":8870,"Ġvaluable":8871,"Ġbeaten":8872,"Ġclaims":8873,"Ġbanks":8874,"Ġthreatened":8875,"ĠOlympic":8876,"Ġinternal":8877,"keeper":8878,"Ġlicense":8879,"Ġrenamed":8880,"ĠMiller":8881,"75":8882,"Aren":8883,"Ass":8884,"ture":8885,"walk":8886,"anne":8887,"Ġindu":8888,"icit":8889,"acles":8890,"ĠAg":8891,"ĠPost":8892,"ĠWork":8893,"Ġdece":8894,"ĠRa":8895,"Ġuser":8896,"ĠHealth":8897,"neath":8898,"Ġdownstairs":8899,"ĠVol":8900,"Ġadj":8901,"teenth":8902,"ocks":8903,"Ġentry":8904,"ologists":8905,"Ġrestrict":8906,"Ġhurts":8907,"Ġportion":8908,"UST":8909,"Ġstores":8910,"ĠGolden":8911,"Ġrepeat":8912,"ĠBrook":8913,"Ġslipped":8914,"Ġexercise":8915,"ĠIraq":8916,"42":8917,"Mum":8918,"Mike":8919,"Pardon":8920,"bus":8921,"ĠÄ":8922,"iner":8923,"Ġwing":8924,"Ġsink":8925,"isen":8926,"Ġfir":8927,"Ġthief":8928,"ammy":8929,"ithm":8930,"ĠMiami":8931,"ĠHart":8932,"ĠGoogle":8933,"ĠFederal":8934,"Ġuseless":8935,"ĠEv":8936,"aga":8937,"Ġagency":8938,"ĠĠĠ":8939,"Ġpride":8940,"Ġwherever":8941,"Ġyoungest":8942,"shit":8943,"Ġdeveloping":8944,"Ġclassic":8945,"Ġawake":8946,"Ġstrongly":8947,"idae":8948,"Ġgenus":8949,"change":8950,"Ġtaxes":8951,"ĠRobin":8952,"43":8953,"49":8954,"Ġdomin":8955,"state":8956,"urrent":8957,"emon":8958,"Ġvul":8959,"Ġgrace":8960,"ĠYug":8961,"retty":8962,"Ġstandards":8963,"Ġ1954":8964,"ĠMinistry":8965,"Ġcleaning":8966,"Ġtechnical":8967,"Ġspirits":8968,"Ġjournalist":8969,"Ġrelatively":8970,"ĠHarrison":8971,"Ġrescue":8972,"ĠFreud":8973,"ĠInternet":8974,"Must":8975,"cular":8976,"ders":8977,"iro":8978,"phan":8979,"anet":8980,"Ġdates":8981,"Ġnap":8982,"child":8983,"ĠBah":8984,"ĠToday":8985,"umps":8986,"ĠNa":8987,"Ġargue":8988,"Ġpeasant":8989,"ĠStone":8990,"Ġunhappy":8991,"Ġparad":8992,"ĠConne":8993,"Ġorganizations":8994,"Ġsuperior":8995,"Ġnegoti":8996,"Ġregarding":8997,"Ġblew":8998,"Ġaltogether":8999,"Ġmysterious":9000,"86":9001,"Comp":9002,"MS":9003,"Sub":9004,"equ":9005,"fle":9006,"ridge":9007,"uct":9008,"Ġwishes":9009,"nde":9010,"Ġfaint":9011,"Ġdea":9012,"Ġgal":9013,"Ġgross":9014,"Ġthrill":9015,"sell":9016,"ĠCole":9017,"Ġangel":9018,"Ġassociation":9019,"Ġseized":9020,"ĠPrem":9021,"ĠWait":9022,"uma":9023,"ĠRober":9024,"ensity":9025,"ucker":9026,"ternal":9027,"Ġleaf":9028,"Star":9029,"Ġ1966":9030,"Ġwondered":9031,"Ġsolo":9032,"Ready":9033,"Ġ1956":9034,"Ġconfident":9035,"Ġruined":9036,"Art":9037,"ĠRomania":9038,"Ġpolicies":9039,"Ġinjured":9040,"Ġprinted":9041,"Ġacquired":9042,"Ġlinear":9043,"Laughter":9044,"Pat":9045,"away":9046,"oa":9047,"ÅŁ":9048,"á½":9049,"Ġtheater":9050,"Ġfisher":9051,"Ġyield":9052,"Ġinch":9053,"Ġanch":9054,"estion":9055,"oslav":9056,"ĠNar":9057,"hibit":9058,"plane":9059,"Ġunconscious":9060,"Ġcarriage":9061,"rane":9062,"Station":9063,"Ġruin":9064,"Uncle":9065,"ĠPolish":9066,"ĠMuslim":9067,"Ġopportunities":9068,"Ġnewspapers":9069,"Ġresource":9070,"Ġpirates":9071,"Ġvessels":9072,"Ġfantastic":9073,"Ġdesperate":9074,"Ġphrase":9075,"ropolitan":9076,"Aw":9077,"Ahmad":9078,"CL":9079,"spe":9080,"inn":9081,"hah":9082,"iders":9083,"imore":9084,"ĠAld":9085,"Ġknight":9086,"eagan":9087,"ĠTuesday":9088,"Ġsoap":9089,"Ġupd":9090,"udi":9091,"Ġdisag":9092,"tainment":9093,"Ġgreatly":9094,"Ġchoo":9095,"Ġelimin":9096,"Ġrivers":9097,"Ġesc":9098,"Ġinvolve":9099,"Ġforests":9100,"Ġcells":9101,"Ġdebate":9102,"Better":9103,"Ġwrestling":9104,"Ġinvented":9105,"DO":9106,"VID":9107,"gro":9108,"such":9109,"wanna":9110,"Ġtube":9111,"Ġcotton":9112,"icing":9113,"irit":9114,"oore":9115,"herry":9116,"Ġselection":9117,"Ġgosh":9118,"ĠGordon":9119,"ĠRu":9120,"ĠFound":9121,"Ġprof":9122,"berry":9123,"ĠHead":9124,"Ġengines":9125,"Ġlasted":9126,"Ġopens":9127,"Ġmighty":9128,"Ġformation":9129,"Ġstrict":9130,"lessly":9131,"velopment":9132,"Ġfellows":9133,"Ġcompete":9134,"Ġcomputers":9135,"Ġangle":9136,"Ġsecretary":9137,"Ġdistribution":9138,"Ġadventure":9139,"Cr":9140,"rary":9141,"Ġcant":9142,"Ġlap":9143,"Ġnarr":9144,"ĠID":9145,"Ġbegged":9146,"ĠSuff":9147,"ĠPut":9148,"ĠTennessee":9149,"theless":9150,"ailed":9151,"Ġshower":9152,"Ġcrimes":9153,"Ġworldwide":9154,"Ġslip":9155,"Ġaccused":9156,"Ġemperor":9157,"Ġ1948":9158,"Ġconfirmed":9159,"Ġconcerns":9160,"Ġgrandfather":9161,"Ġgenius":9162,"Ġvacation":9163,"ACK":9164,"Ġemotion":9165,"Check":9166,"Ġplatforms":9167,"Ġoccupied":9168,"Ġtickets":9169,"Ġprovinces":9170,"41":9171,"Poor":9172,"char":9173,"epend":9174,"hum":9175,"press":9176,"race":9177,"Ġtiss":9178,"inations":9179,"inction":9180,"Ġfake":9181,"Ġduties":9182,"Ġbend":9183,"Ġreaching":9184,"oos":9185,"ĠAvenue":9186,"ĠMot":9187,"tery":9188,"ĠPoint":9189,"umph":9190,"Ġaboard":9191,"ĠLuther":9192,"ĠKan":9193,"ĠKings":9194,"Ġoffers":9195,"Ġoffering":9196,"Ġguide":9197,"Ġinches":9198,"Ġarticles":9199,"Ġhurricane":9200,"Ġ1961":9201,"Ġsquad":9202,"Ġ1942":9203,"Ġeighteen":9204,"Ġmerged":9205,"Ġarrive":9206,"Ġsurvived":9207,"ĠTolombe":9208,"Ġdefinition":9209,"ĠTolombeh":9210,"97":9211,"EF":9212,"NER":9213,"iper":9214,"ught":9215,"ãĤ":9216,"isp":9217,"Ġbot":9218,"Ġcub":9219,"orf":9220,"orous":9221,"adies":9222,"ĠMust":9223,"ĠBase":9224,"ĠFamily":9225,"Ġslave":9226,"ĠAlbert":9227,"iolet":9228,"sels":9229,"Forget":9230,"Ask":9231,"Ġ1952":9232,"ĠCharlie":9233,"Ġcompeted":9234,"Ġprivile":9235,"Ġservants":9236,"Ġhosted":9237,"Ġlieutenant":9238,"Ġthrowing":9239,"Ġseventh":9240,"ĠJews":9241,"Ġlifted":9242,"Ġapologize":9243,"Ġethnic":9244,"Ġincredible":9245,"Ġpermanent":9246,"ĠTokyo":9247,"eautiful":9248,"44":9249,"Red":9250,"master":9251,"Ġsample":9252,"Ġbold":9253,"Ġmath":9254,"Ġtoler":9255,"lete":9256,"ader":9257,"ĠAmb":9258,"ĠBishop":9259,"Ġric":9260,"Ġalgor":9261,"elson":9262,"Ġsaving":9263,"ĠOri":9264,"avig":9265,"Ġfounder":9266,"Ġheading":9267,"Ġregist":9268,"pected":9269,"Ġretreat":9270,"gedy":9271,"Ġmovements":9272,"Ġconstantly":9273,"Ġprimarily":9274,"Ġcelebrated":9275,"Ġbacter":9276,"Ġconstructed":9277,"Ġconcrete":9278,"Ġnearer":9279,"Ġphase":9280,"ĠHollywood":9281,"**":9282,"IG":9283,"din":9284,"gas":9285,"Ġawards":9286,"Ġwreck":9287,"Ġsou":9288,"isy":9289,"Ġobey":9290,"Ġlob":9291,"ĠHo":9292,"ĠTell":9293,"ulating":9294,"Ġjam":9295,"ĠGen":9296,"ĠRo":9297,"Ġshoe":9298,"Ġconven":9299,"ĠNations":9300,"Ġvain":9301,"ĠOur":9302,"ĠKal":9303,"Ġintense":9304,"Ġwrites":9305,"iped":9306,"Ġlongest":9307,"Ġ33":9308,"Ġexpressed":9309,"Mmm":9310,"Ġ1962":9311,"Ġclassical":9312,"Ġdivide":9313,"ĠAusten":9314,"Ġbags":9315,"Ġidentify":9316,"Ġholes":9317,"ĠMountain":9318,"Ġmemories":9319,"ĠÂ£":9320,"Ġrapidly":9321,"Honey":9322,"Res":9323,"whe":9324,"isbon":9325,"itals":9326,"Ġbent":9327,"Ġbars":9328,"Ġfrank":9329,"Ġfiction":9330,"Ġdoo":9331,"omer":9332,"Ġnic":9333,"Ġreb":9334,"uration":9335,"ĠPLA":9336,"ĠWars":9337,"ĠLes":9338,"igen":9339,"agle":9340,"Ġtrunk":9341,"urname":9342,"Ġscheme":9343,"alend":9344,"Ġswift":9345,"Ġemphas":9346,"Ġ75":9347,"uese":9348,"Ġrival":9349,"Ġreasonable":9350,"ĠAbb":9351,"Ġloan":9352,"ĠRegion":9353,"Ġintelligence":9354,"Ġearthquake":9355,"Mark":9356,"eenth":9357,"instein":9358,"Ġmars":9359,"Ġna":9360,"icop":9361,"uter":9362,"ĠCost":9363,"ĠWednesday":9364,"ĠLat":9365,"ĠKNOW":9366,"soft":9367,"pton":9368,"ruits":9369,"Ġfled":9370,"ĠArmen":9371,"Ġdistant":9372,"Ġinstinct":9373,"Ġpassengers":9374,"ESS":9375,"asket":9376,"Ġtests":9377,"Ġwooden":9378,"Ġearliest":9379,"Ġprinciples":9380,"Ġachieved":9381,"ĠMatthew":9382,"Ġinstruments":9383,"Ġpaintings":9384,"Ġsemi":9385,"Ġcategory":9386,"Ġkilomet":9387,"mommy":9388,"Ob":9389,"South":9390,"West":9391,"cers":9392,"gate":9393,"world":9394,"Ġutter":9395,"itable":9396,"esar":9397,"ĠHad":9398,"ĠHur":9399,"ĠHog":9400,"opp":9401,"ĠPress":9402,"ĠTar":9403,"ĠGardens":9404,"ĠFa":9405,"ĠForm":9406,"ĠField":9407,"resents":9408,"Ġproport":9409,"ĠEddie":9410,"Ġintention":9411,"ĠUs":9412,"Ġrolled":9413,"Ġ38":9414,"otto":9415,"Ġfourteen":9416,"Ġobtained":9417,"Ġinteract":9418,"Ġmedium":9419,"Ġdeaths":9420,"Ġawesome":9421,"Ġ1958":9422,"ĠBarb":9423,"Ġliterary":9424,"Ġhonestly":9425,"ĠMountains":9426,"ĠOfficer":9427,"Ġcrisis":9428,"Ġsplendid":9429,"rors":9430,"Ġsang":9431,"Ġpushing":9432,"asia":9433,"Ġgrief":9434,"Ġthunder":9435,"ĠChildren":9436,"umin":9437,"ĠLew":9438,"ĠJoy":9439,"oody":9440,"Ġvice":9441,"Ġwhoa":9442,"ĠUt":9443,"ermans":9444,"ordan":9445,"ĠVeg":9446,"Ġremote":9447,"Ġ400":9448,"Ġglance":9449,"Ġpassenger":9450,"Ġreply":9451,"Ġmode":9452,"Ġ1946":9453,"Ġarrival":9454,"Ġexception":9455,"Ġrecognition":9456,"Ġsailing":9457,"ettle":9458,"ĠMaryland":9459,"Ġdiseases":9460,"Ġaffairs":9461,"Ġprayer":9462,"Ġroughly":9463,"Tomorrow":9464,"Son":9465,"ds":9466,"six":9467,"tw":9468,"wick":9469,"Ġwoke":9470,"Ġwounds":9471,"Ġsna":9472,"itement":9473,"Ġmos":9474,"Ġmouse":9475,"anwhile":9476,"Ġec":9477,"ĠTha":9478,"olve":9479,"Ġshining":9480,"Ġwheels":9481,"Ġvon":9482,"ĠOb":9483,"again":9484,"Ġdisgust":9485,"Ġpreced":9486,"ĠDef":9487,"Ġassigned":9488,"Ġcreatures":9489,"Ġanimated":9490,"Ġindex":9491,"Ġmerry":9492,"Unless":9493,"Death":9494,"uddenly":9495,"ĠBoyer":9496,"Ġclimb":9497,"Mur":9498,"mate":9499,"mates":9500,"sk":9501,"Ġsorrow":9502,"Ġdign":9503,"Ġinher":9504,"aton":9505,"otes":9506,"idency":9507,"Ġstarring":9508,"ĠPot":9509,"Ġrit":9510,"ĠGive":9511,"ĠRel":9512,"ĠFive":9513,"ntown":9514,"ighed":9515,"Ġplates":9516,"ĠEducation":9517,"orted":9518,"Ġintent":9519,"asses":9520,"Ġbrush":9521,"Start":9522,"Ġproducing":9523,"Ġ1943":9524,"EST":9525,"ĠSydney":9526,"Ġrelationships":9527,"Ġimmediate":9528,"Quick":9529,"ĠSilver":9530,"cticut":9531,"daddy":9532,"ĠHeaven":9533,"aa":9534,"dr":9535,"je":9536,"jud":9537,"log":9538,"Ġbrig":9539,"Ġcoc":9540,"Ġdull":9541,"Ġpowder":9542,"leans":9543,"idel":9544,"ĠContin":9545,"urther":9546,"ĠBor":9547,"antry":9548,"ĠPo":9549,"ĠGi":9550,"ĠGot":9551,"Ġalien":9552,"ĠReagan":9553,"ĠFace":9554,"abi":9555,"ĠJerry":9556,"rave":9557,"ĠElect":9558,"itts":9559,"aved":9560,"Ġcounting":9561,"Ġchurches":9562,"Ġfactors":9563,"Ġlessons":9564,"Ġstraw":9565,"Ġmotiv":9566,"Ġdeeply":9567,"Ġamounts":9568,"Ġterrif":9569,"Ġannounce":9570,"aisy":9571,"Ġdistributed":9572,"Girl":9573,"Mor":9574,"Things":9575,"mission":9576,"âĤ":9577,"Ġpup":9578,"ĠIV":9579,"ĠAM":9580,"ĠMA":9581,"Ġlied":9582,"Ġknee":9583,"oland":9584,"ĠLA":9585,"ĠLion":9586,"emed":9587,"ĠJess":9588,"Ġusers":9589,"Ġpee":9590,"Ġcloth":9591,"ĠViv":9592,"Ġunderneath":9593,"Ġpoem":9594,"ective":9595,"Ġserves":9596,"Ġbelt":9597,"ĠDean":9598,"Ġeval":9599,"Ġextensive":9600,"ĠSpeak":9601,"Ġstructures":9602,"Ġ1938":9603,"Ġgrandma":9604,"ĠUSA":9605,"ĠChristianity":9606,"Ġhistoric":9607,"piration":9608,"Ġcustomers":9609,"Ġwhispered":9610,"Ġpoetry":9611,"Ġtroubles":9612,"Ġrhyth":9613,"IVE":9614,"Old":9615,"wall":9616,"Ġboring":9617,"Ġpond":9618,"Ġloving":9619,"alph":9620,"ĠAmy":9621,"ĠCreek":9622,"ulpt":9623,"ĠDyn":9624,"ĠTheatre":9625,"Ġroots":9626,"pert":9627,"ints":9628,"Ġmonarch":9629,"ĠZe":9630,"Ġpresentation":9631,"Ġdivine":9632,"Ġtemporary":9633,"ĠTechn":9634,"Ġmistakes":9635,"Ġfacilities":9636,"Ġextraordinary":9637,"Ġgoddamn":9638,"Ġreckon":9639,"ĠBangladesh":9640,"Ã£o":9641,"83":9642,"IA":9643,"laughs":9644,"nis":9645,"Ġtag":9646,"Ġbark":9647,"Ġitem":9648,"ĠSof":9649,"Ġstorage":9650,"ĠAlf":9651,"ĠMm":9652,"ĠHistor":9653,"ĠBall":9654,"think":9655,"rait":9656,"these":9657,"Ġ46":9658,"Ġdecent":9659,"Ġtrap":9660,"shine":9661,"Ġ1959":9662,"Ġprotected":9663,"Ġprisoner":9664,"ĠSteven":9665,"Ġessential":9666,"Ġspecifically":9667,"Ġrarely":9668,"ĠManipur":9669,"Such":9670,"ii":9671,"pat":9672,"rine":9673,"sa":9674,"zed":9675,"Ġaye":9676,"Ġfox":9677,"Ġinner":9678,"Ġgest":9679,"Ġgreet":9680,"stock":9681,"ĠAff":9682,"Ġkings":9683,"Ġrural":9684,"ĠLind":9685,"Ġ(_":9686,"Ġexists":9687,"Ġspaces":9688,"pless":9689,"Ġprices":9690,"Ġadapt":9691,"Ġsynt":9692,"Ġrepresents":9693,"Ġsounded":9694,"Ġopposition":9695,"alda":9696,"Ġsweetheart":9697,"ographer":9698,"ĠPoland":9699,"Ġconsiderable":9700,"Ġvisitors":9701,"ĠSpecial":9702,"Ġdivorced":9703,"Career":9704,"avaria":9705,"ĠVietnam":9706,"Illustration":9707,"GRUN":9708,"Kill":9709,"dist":9710,"hab":9711,"Ġtoss":9712,"Ġholy":9713,"utor":9714,"ĠSn":9715,"Ġdode":9716,"ĠHor":9717,"ĠGor":9718,"Ġintend":9719,"ĠUN":9720,"Ġfever":9721,"ĠVery":9722,"Ġguards":9723,"Ġhanded":9724,"Ġrecovered":9725,"ggie":9726,"cluding":9727,"Ġexposed":9728,"Ġoffices":9729,"Ġproviding":9730,"ĠChristians":9731,"Ġdepression":9732,"ĠSeries":9733,"Ġsearching":9734,"ĠMuslims":9735,"Ġofficials":9736,"Ġcelebrate":9737,"Ġconducted":9738,"Ġuniversities":9739,"Ġbubbles":9740,"Ġfarther":9741,"Had":9742,"Sam":9743,"Tony":9744,"cham":9745,"lE":9746,"last":9747,"tit":9748,"vation":9749,"Ġtune":9750,"erick":9751,"itage":9752,"Ġdirt":9753,"Ġpunch":9754,"ushes":9755,"Ġbeast":9756,"ĠSix":9757,"ĠCass":9758,"ĠMun":9759,"ĠHun":9760,"ĠBud":9761,"romise":9762,"Ġorphan":9763,"Ġwhoever":9764,"Ġtram":9765,"Ġscary":9766,"tains":9767,"hesis":9768,"Ġwarn":9769,"Ġ1949":9770,"Ġrequires":9771,"Ġdamaged":9772,"Ġrepresenting":9773,"Ġexisted":9774,"ĠMoz":9775,"Ġinternet":9776,"Ġgraduate":9777,"ĠForest":9778,"Ġaccompan":9779,"ĠLabour":9780,"ĠTurkish":9781,"Ġincorpor":9782,"Congratulations":9783,"ĠSuffolk":9784,"):":9785,"Bad":9786,"Fe":9787,"Sil":9788,"Us":9789,"low":9790,"ÂĿ":9791,"Ġaired":9792,"Ġnonsense":9793,"idering":9794,"Ġey":9795,"star":9796,"chi":9797,"Ġorchestra":9798,"ĠLive":9799,"ĠNed":9800,"Ġsauce":9801,"ocation":9802,"before":9803,"Ġ55":9804,"Ġdistract":9805,"Ġassass":9806,"ĠSoon":9807,"Ġwinds":9808,"ĠOnce":9809,"ĠLeg":9810,"century":9811,"ĠColor":9812,"Ġgradually":9813,"ĠPanama":9814,"ĠTaipei":9815,"Ġmanufacture":9816,"ĠPortuguese":9817,"ĠEntertainment":9818,"Ġtremend":9819,"ĠConnecticut":9820,"'?":9821,"UCK":9822,"Â¶":9823,"heastern":9824,"oust":9825,"Ġcows":9826,"Ġfare":9827,"orters":9828,"Ġdial":9829,"Ġhid":9830,"Ġisol":9831,"ĠGene":9832,"Ġshops":9833,"osity":9834,"Ġarc":9835,"Ġclin":9836,"Soon":9837,"Ġbackwards":9838,"Ġenvelope":9839,"Ġcontaining":9840,"Ġrecon":9841,"ahn":9842,"ART":9843,"Ġparticles":9844,"cribed":9845,"Ġsumm":9846,"Ġnathaniel":9847,"Ġsafely":9848,"Ġpoliceman":9849,"Ġclosing":9850,"Ġbreathe":9851,"ĠPolice":9852,"Ġdepending":9853,"Ġfunds":9854,"ĠMorgan":9855,"Ġinjuries":9856,"music":9857,"Ġsurrounding":9858,"Ġtypically":9859,"Ġbarely":9860,"English":9861,"Ġenormous":9862,"46":9863,"?'":9864,"burn":9865,"nels":9866,"piece":9867,"zes":9868,"inburgh":9869,"rec":9870,"Ġbond":9871,"ĠIr":9872,"ione":9873,"ĠSuch":9874,"stract":9875,"ĠCas":9876,"ĠCAN":9877,"ĠHoll":9878,"ilst":9879,"Ġrude":9880,"Ġracing":9881,"Ġjazz":9882,"ĠGro":9883,"ĠKnight":9884,"Ġclown":9885,"Ġbuff":9886,"IND":9887,"Ġfacts":9888,"Ġinsist":9889,"ĠGrant":9890,"ĠAustrian":9891,"fficiency":9892,"Ġ1939":9893,"ICE":9894,"Ġattempted":9895,"Ġlinked":9896,"Charles":9897,"Ġfrozen":9898,"ĠHotel":9899,"Second":9900,"Ġretirement":9901,"Ġadministrative":9902,"ĠCorporation":9903,"Hal":9904,"Mind":9905,"dale":9906,"iors":9907,"rome":9908,"really":9909,"isdom":9910,"Ġincl":9911,"Ġnations":9912,"othy":9913,"Ġbears":9914,"imm":9915,"ĠSav":9916,"ĠCru":9917,"ainted":9918,"ĠGET":9919,"osure":9920,"ĠNOT":9921,"hana":9922,"Ġcomic":9923,"weather":9924,"Ġshares":9925,"Ġkinda":9926,"def":9927,"rett":9928,"Ġindic":9929,"Ġvisible":9930,"Ġcampus":9931,"Ġlads":9932,"Ġresear":9933,"Ġhopes":9934,"Ġaccounts":9935,"Ġfrogs":9936,"ribute":9937,"Ġdunno":9938,"ĠYugoslav":9939,"Jul":9940,"mn":9941,"mitted":9942,"oft":9943,"render":9944,"acement":9945,"ĠMi":9946,"ĠBre":9947,"ĠBir":9948,"antle":9949,"ĠTurn":9950,"Ġcance":9951,"ĠFame":9952,"ĠLow":9953,"Ġhers":9954,"oused":9955,"Ġactors":9956,"arson":9957,"Ġcleared":9958,"Ġfunctions":9959,"Ġelsewhere":9960,"Ġcondens":9961,"Ġstaring":9962,"Ġlimits":9963,"Ġringing":9964,"Ġinfluenced":9965,"Ġintroduction":9966,"uela":9967,"Ġbehalf":9968,"Ġfocused":9969,"ĠAnton":9970,"Ġanxious":9971,"Ġwriters":9972,"Cal":9973,"Ġvel":9974,"inet":9975,"rep":9976,"Ġsession":9977,"Ġdwell":9978,"arse":9979,"ayan":9980,"ĠSometimes":9981,"Ġseated":9982,"ĠHou":9983,"ĠBos":9984,"ĠBaby":9985,"ĠWrest":9986,"Ġalarm":9987,"Ġshield":9988,"igr":9989,"cker":9990,"ĠEp":9991,"Ġvoted":9992,"feld":9993,"ansion":9994,"Ġrecover":9995,"Ġlanding":9996,"airies":9997,"Ġprominent":9998,"Ġcontrols":9999,"Ġoppon":10000,"ĠOrleans":10001,"Ġimagination":10002,"Ġjudgment":10003,"Ġperspective":10004,"Ġdigital":10005,"Ġdetermine":10006,"Ġdocumentary":10007,"spector":10008,"Ġstroke":10009,"Ġfeathers":10010,"Ġnortheast":10011,"Ġgravity":10012,"ĠRepresentatives":10013,"Boss":10014,"dam":10015,"num":10016,"Ġwax":10017,"Ġsar":10018,"Ġsurname":10019,"Ġfetch":10020,"ĠyÎ¿u":10021,"ĠIce":10022,"alie":10023,"Ġstamp":10024,"allas":10025,"ifted":10026,"ĠHook":10027,"ĠBul":10028,"ĠBavaria":10029,"unning":10030,"Ġexcess":10031,"bery":10032,"Ġfee":10033,"Ġperce":10034,"Ġcray":10035,"ugs":10036,"Ġsurvey":10037,"Always":10038,"Ġtermin":10039,"ĠPlatform":10040,"ĠCommon":10041,"Ġperforming":10042,"ĠTHIS":10043,"Ġpalm":10044,"Ġsensitive":10045,"Play":10046,"ĠDarling":10047,"lemn":10048,"Ġtransferred":10049,"Ġcomponents":10050,"ĠBaltimore":10051,"Ġthirteen":10052,"Ġequivalent":10053,".!":10054,"67":10055,"Chan":10056,"GO":10057,"ILL":10058,"Lu":10059,"Later":10060,"rong":10061,"round":10062,"yep":10063,"rehens":10064,"Ġbills":10065,"aters":10066,"stream":10067,"ĠChile":10068,"ĠMoon":10069,"Ġseas":10070,"Ġseeds":10071,"ĠWild":10072,"ĠRus":10073,"ĠLO":10074,"ckets":10075,"ĠEconom":10076,"ĠKevin":10077,"ideo":10078,"ureau":10079,"Ġbuzz":10080,"Ġ39":10081,"everal":10082,"gger":10083,"Ġslaves":10084,"ĠAndy":10085,"Ġentering":10086,"Ġmetro":10087,"ungle":10088,"Ġevident":10089,"Ġmusicians":10090,"Ġequally":10091,"Ġvisual":10092,"Ġexcitement":10093,"ennis":10094,"Ġtempt":10095,"Ġappearances":10096,"Ġtitles":10097,"ederation":10098,"Ġgarbage":10099,"iffs":10100,"Ġfeeding":10101,"Ġfarmers":10102,"Ġsequence":10103,"Ġsuspic":10104,"Martin":10105,"Coll":10106,"power":10107,"rings":10108,"Ä±":10109,"Ġ+":10110,"Ġbass":10111,"Ġbunny":10112,"Ġchips":10113,"Ġfierce":10114,"Ġinput":10115,"Ġgently":10116,"alia":10117,"Ġrejo":10118,"ĠSally":10119,"struction":10120,"rians":10121,"ĠBry":10122,"ĠTower":10123,"geous":10124,"ĠRan":10125,"Ġcomments":10126,"inder":10127,"itei":10128,"Ġeveryday":10129,"Ġadjust":10130,"Ġdishes":10131,"Ġattorney":10132,"Ġstopping":10133,"ĠAncient":10134,"Ġ65":10135,"Ġreprodu":10136,"Ġfiles":10137,"Ġpayment":10138,"Ġrefers":10139,"Ġspeaker":10140,"Ġbeds":10141,"ĠShut":10142,"Ġdifficulties":10143,"ĠSarhad":10144,"Ġblowing":10145,"ĠPatrick":10146,"Ġdemanded":10147,"Enough":10148,"Ġremarkable":10149,"Ġbubble":10150,"Med":10151,"Ric":10152,"Same":10153,"mal":10154,"mill":10155,"uine":10156,"onom":10157,"Ġcalend":10158,"ĠServ":10159,"stop":10160,"rific":10161,"Ġstack":10162,"ĠAB":10163,"ĠCamer":10164,"ĠMatt":10165,"quiao":10166,"cknow":10167,"ĠStop":10168,"Ġgoodbye":10169,"Ġrecycl":10170,"ilda":10171,"grad":10172,"âĻ«":10173,"Ġentitled":10174,"Ġsixteen":10175,"ĠScots":10176,"Ġsupporting":10177,"Ġsuccessfully":10178,"ĠAdams":10179,"Ġmercy":10180,"comfort":10181,"Ġattracted":10182,"Ġnucle":10183,"Ġentertainment":10184,"ĠWITH":10185,"Ġsacrifice":10186,"Aha":10187,"Rec":10188,"lon":10189,"oir":10190,"vol":10191,"Ġauth":10192,"Ġbid":10193,"Ġbore":10194,"otal":10195,"aya":10196,"Ġbeans":10197,"Ġease":10198,"ĠMoore":10199,"ĠBuck":10200,"ĠDog":10201,"ques":10202,"ĠKelly":10203,"Ġpeas":10204,"ĠUr":10205,"Ġdismiss":10206,"Ġfinishing":10207,"ifications":10208,"ĠThose":10209,"iki":10210,"Ġ1937":10211,"Ġscare":10212,"break":10213,"Ġstretched":10214,"Ġdiamond":10215,"Ġmicrophone":10216,"Ġexpanded":10217,"Ġfurniture":10218,"ĠHindu":10219,"Geography":10220,"Amy":10221,"please":10222,"phew":10223,"sub":10224,"Ġmister":10225,"Ġfranch":10226,"edy":10227,"Ġinject":10228,"ĠSlyne":10229,"rob":10230,"adi":10231,"ĠMP":10232,"Ġsector":10233,"ĠHug":10234,"Ġraid":10235,"Ġabroad":10236,"iev":10237,"eling":10238,"Ġshed":10239,"Ġvary":10240,"ĠOpen":10241,"Ġcompass":10242,"Ġwhereas":10243,"ĠVI":10244,"ĠVill":10245,"ccer":10246,"ĠChuck":10247,"Ġfoundation":10248,"Ġdecades":10249,"Thou":10250,"shot":10251,"Ġjoining":10252,"umbled":10253,"Ġ1957":10254,"Ġconfirm":10255,"Ġeffectively":10256,"Ġdestruction":10257,"Ġabsence":10258,"yrics":10259,"Ġbelonged":10260,"Ġapplications":10261,"Ġcompanion":10262,"Ġleadership":10263,"Ġlandscape":10264,"CC":10265,"Happy":10266,"OP":10267,"Sa":10268,"ghan":10269,"hh":10270,"iop":10271,"rous":10272,"sighs":10273,"too":10274,"ester":10275,"armed":10276,"Ġloop":10277,"omon":10278,"Ġrebell":10279,"Ġstadium":10280,"ĠHistory":10281,"Ġconclusion":10282,"Ġsup":10283,"Ġseeking":10284,"Ġsculpt":10285,"Ġconscience":10286,"Ġdrift":10287,"onym":10288,"Ġ170":10289,"anguage":10290,"Ġstatue":10291,"ĠMeitei":10292,"Ġtechniques":10293,"Ġeducated":10294,"ĠDeputy":10295,"Ġarrangement":10296,"Ġwithdraw":10297,"ĠRollo":10298,"57":10299,"98":10300,"Fire":10301,"Nor":10302,"Que":10303,"Sar":10304,"XX":10305,"cond":10306,"ige":10307,"Ġwins":10308,"Ġbay":10309,"Ġcraft":10310,"ingo":10311,"verty":10312,"ĠCook":10313,"Ġsear":10314,"ĠHop":10315,"ĠFR":10316,"ĠNelson":10317,"ĠJordan":10318,"Ġpros":10319,"Ġspark":10320,"Ġdisaster":10321,"Ġsecrets":10322,"Ġsupper":10323,"Ġfollowers":10324,"Ġasshole":10325,"Ġkidna":10326,"Ġskill":10327,"ĠClark":10328,"Ġdefence":10329,"Ann":10330,"zech":10331,"Ġbands":10332,"Ġzone":10333,"ĠAmendment":10334,"Ġworthy":10335,"ĠPhilip":10336,"Ġquarters":10337,"Ġemployed":10338,"ĠCrown":10339,"ĠFinn":10340,"Ġfaithful":10341,"Ġlifetime":10342,"Ġchapter":10343,"Ġaspects":10344,"Ġconsciousness":10345,"Ġbattery":10346,"ĠPhilippines":10347,"Ġestimated":10348,"!!":10349,"Baby":10350,"Off":10351,"Sounds":10352,"bors":10353,"rez":10354,"Ġfence":10355,"Ġfeared":10356,"ingle":10357,"oria":10358,"Ġpip":10359,"achi":10360,"roit":10361,"ĠHold":10362,"ĠPict":10363,"ĠRos":10364,"udy":10365,"Ġgran":10366,"obile":10367,"Ġpoverty":10368,"Ġinstantly":10369,"iversary":10370,"ĠAnim":10371,"Ġrefuse":10372,"Ġgovernments":10373,"ĠMayor":10374,"Ġcreative":10375,"ARE":10376,"Ġsteady":10377,"levant":10378,"ĠChap":10379,"Ġruler":10380,"Ġmeantime":10381,"Ġjudges":10382,"ĠMedia":10383,"culiar":10384,"ĠBelg":10385,"Ġtailor":10386,"Ġromance":10387,"Ġbeliefs":10388,"Ġpatterns":10389,"ĠBroadway":10390,"ĠTemple":10391,"ĠHawaii":10392,"ĠVegas":10393,"Gee":10394,"Min":10395,"Mal":10396,"Personal":10397,"SO":10398,"dle":10399,"shall":10400,"Ġacknow":10401,"rek":10402,"Ġcave":10403,"Ġpor":10404,"Ġlamb":10405,"Ġwelf":10406,"ĠCL":10407,"ĠCamb":10408,"iland":10409,"Ġnephew":10410,"Ġjoseph":10411,"ĠDale":10412,"aku":10413,"agan":10414,"Ġtract":10415,"Ġensure":10416,"Ġapples":10417,"Ġswing":10418,"Att":10419,"ĠSpring":10420,"pring":10421,"Ġeighth":10422,"ĠJohan":10423,"THER":10424,"Ġboxes":10425,"urious":10426,"ĠTelevision":10427,"Ġshark":10428,"Ġsoftly":10429,"Ġfoolish":10430,"Ġseventeen":10431,"Ġkicked":10432,"Ġparticipate":10433,"Ġscratch":10434,"Ġoccasionally":10435,"Ġassumed":10436,"ĠWayne":10437,"Ġdynam":10438,"Ġdynasty":10439,"ĠCOVID":10440,"Ġcolleagues":10441,"ĠProtestant":10442,"ĠFoundation":10443,"Ġwelfare":10444,"Number":10445,"Work":10446,"bie":10447,"gun":10448,"gments":10449,"Ġtiger":10450,"Ġarose":10451,"Ġbin":10452,"Ġbump":10453,"ller":10454,"lement":10455,"Ġhesit":10456,"ĠSher":10457,"term":10458,"ifest":10459,"ĠHen":10460,"Ġsole":10461,"Ġshots":10462,"elf":10463,"ĠNFL":10464,"Ġresident":10465,"ailing":10466,"Ġcourses":10467,"Ġhelpful":10468,"Ġ47":10469,"Ġregister":10470,"plete":10471,"Ġmonkey":10472,"Alan":10473,"OUR":10474,"Ġinsane":10475,"Ġ1955":10476,"Ġchecking":10477,"Ġmerc":10478,"ienna":10479,"Ġversus":10480,"ĠSerb":10481,"scar":10482,"Ġfacing":10483,"Ġoffend":10484,"Ġexecution":10485,"Ġbleeding":10486,"Ġbriefly":10487,"Ġoptions":10488,"Ġfloating":10489,"odded":10490,"Ġdisappointed":10491,"ĠNapole":10492,"Ġscarcely":10493,"Ġintellectual":10494,"Ġdiplom":10495,"Din":10496,"hr":10497,"uits":10498,"ww":10499,"Ġaston":10500,"Ġgates":10501,"ĠAz":10502,"ĠCON":10503,"ĠCooper":10504,"ĠMain":10505,"aboo":10506,"ateur":10507,"ĠOnt":10508,"ĠKurd":10509,"Ġuncertain":10510,"Ġsometime":10511,"Ġcoinc":10512,"Ġ34":10513,"Ġmarch":10514,"Ġpresents":10515,"Ġsurve":10516,"ĠAnthony":10517,"Ġcares":10518,"Ġimpressed":10519,"Ġinspect":10520,"Ġconfront":10521,"ĠEdinburgh":10522,"Ġradiation":10523,"Ġgenuine":10524,"speaking":10525,"Ġcounsel":10526,"Ġpencil":10527,"Ġmiserable":10528,"Ġmadam":10529,"Ġdiscussed":10530,"Ġmidnight":10531,"Ġroutes":10532,"Ġaffili":10533,"Ġpanel":10534,"Ġoptim":10535,"Ġexclaimed":10536,"Ġdelighted":10537,"Ġscreaming":10538,"Ġunex":10539,"BETH":10540,"ĠNetwork":10541,"ĠPremier":10542,"300":10543,"Japan":10544,"Lord":10545,"di":10546,"fight":10547,"lia":10548,"pan":10549,"watch":10550,"Ġtherap":10551,"Ġsack":10552,"onial":10553,"Ġdrank":10554,"Ġpent":10555,"Ġlamp":10556,"ussels":10557,"acent":10558,"Ġstead":10559,"Ġ120":10560,"thought":10561,"ĠDove":10562,"inks":10563,"ĠEth":10564,"ĠKermans":10565,"Ġspy":10566,"pering":10567,"ĠVin":10568,"Ġkeen":10569,"ranean":10570,"mann":10571,"Ġenthus":10572,"Ġchase":10573,"OUT":10574,"Ġprompt":10575,"umbling":10576,"Ġreceiving":10577,"engu":10578,"Ġprogramming":10579,"Ġsuggests":10580,"Ġsharks":10581,"Ġprimitive":10582,"Ġimproved":10583,"Ġchemistry":10584,"whoops":10585,"ĠResearch":10586,"ĠWinter":10587,"Ġclouds":10588,"Ġdivorce":10589,"Ġacademic":10590,"Ġathlet":10591,"ĠKermanshah":10592,"64":10593,"Cut":10594,"Know":10595,"Mat":10596,"PA":10597,"kward":10598,"names":10599,"Ġcough":10600,"Ġfame":10601,"Ġhitting":10602,"alities":10603,"idodecahedron":10604,"rior":10605,"ĠCour":10606,"Ġraw":10607,"ĠDin":10608,"ĠGran":10609,"emen":10610,"employ":10611,"ĠEmma":10612,"orton":10613,"ogan":10614,"izza":10615,"ruption":10616,"ĠArm":10617,"ĠArn":10618,"Ġ49":10619,"Ġfarmer":10620,"ĠWeb":10621,"Ġtriangle":10622,"ĠProgram":10623,"Ġbreaks":10624,"former":10625,"Except":10626,"Ġbanana":10627,"Ġbehavi":10628,"Ġparticipated":10629,"Ġmemorial":10630,"Ġencourage":10631,"Ġvehicles":10632,"Ġtravelling":10633,"Ġultimately":10634,"Ġagricultural":10635,"Ġshelter":10636,"ĠChairman":10637,"68":10638,"AF":10639,"North":10640,"Tube":10641,"UE":10642,"rected":10643,"Ġmask":10644,"anium":10645,"Ġpardon":10646,"ĠCra":10647,"ĠCard":10648,"olas":10649,"ĠFars":10650,"ĠFBI":10651,"ĠLaura":10652,"ĠNative":10653,"ĠNik":10654,"quis":10655,"ĠJae":10656,"odox":10657,"Ġexceed":10658,"Ġvig":10659,"ĠKy":10660,"--_":10661,"Ġflav":10662,"Ġrecall":10663,"Ġshaking":10664,"Ġminimum":10665,"Ġsupplies":10666,"aza":10667,"azon":10668,"Ġsurrender":10669,"Ġwarrant":10670,"Ġmetres":10671,"ĠEngine":10672,"Ġmeets":10673,"Ġdesigns":10674,"Ġresulted":10675,"ĠBaron":10676,"Ġtitled":10677,"Ġconvince":10678,"Ġurban":10679,"ĠNorway":10680,"Seriously":10681,"Ġfluid":10682,"Ġcasual":10683,"ĠTaylor":10684,"Ġboots":10685,"Ġmilitia":10686,"Music":10687,"ĠHitler":10688,"ĠRoberts":10689,"%.":10690,"Ay":10691,"Rep":10692,"Rock":10693,"TED":10694,"contin":10695,"lah":10696,"mph":10697,"wear":10698,"Ġsore":10699,"Ġcra":10700,"Ġtom":10701,"Ġinfection":10702,"Ġnodded":10703,"Ġhollow":10704,"Ġthirst":10705,"acon":10706,"ĠSuz":10707,"ĠBye":10708,"estine":10709,"Ġabuse":10710,"osaur":10711,"ĠJos":10712,"Ġvirus":10713,"Ġgrounds":10714,"ĠYe":10715,"bean":10716,"Ġlets":10717,"onsin":10718,"Ġdrum":10719,"Ġmatrix":10720,"Ġlandl":10721,"Ġpriests":10722,"Ġ1953":10723,"Ġperformances":10724,"ĠMinnes":10725,"Ġtouching":10726,"Ġcultiv":10727,"Ġtrusted":10728,"Ġattempts":10729,"Ġpackage":10730,"Ġcrops":10731,"ĠPacquiao":10732,"Ġcriticism":10733,"ĠHamilton":10734,"Ġinstitution":10735,"ĠImperial":10736,"iveness":10737,"ĠNorman":10738,"Ġvertex":10739,"Ġprotein":10740,"ĠColorado":10741,"Hel":10742,"JUL":10743,"VD":10744,"might":10745,"phy":10746,"vate":10747,"half":10748,"another":10749,"hattan":10750,"Ġnerves":10751,"Ġrebu":10752,"ĠSum":10753,"iration":10754,"kee":10755,"ĠMolly":10756,"ĠBan":10757,"ĠDak":10758,"ĠDown":10759,"abe":10760,"ĠKLAUS":10761,"ferences":10762,"ĠStew":10763,"Ġbrows":10764,"ĠYan":10765,"Ġflesh":10766,"Ġsmoking":10767,"Ġchop":10768,"Ġchee":10769,"Ġaccord":10770,"ARS":10771,"ĠShir":10772,"Ġ1936":10773,"ĠBarry":10774,"Ġcookies":10775,"Ġsurprising":10776,"ĠSupp":10777,"ographic":10778,"Ġcrook":10779,"ĠAlexand":10780,"Ġdespair":10781,"Ġeldest":10782,"liga":10783,"Ġfavourite":10784,"Ġfraud":10785,"shaped":10786,"Ġpremie":10787,"ĠShiv":10788,"Ġfascin":10789,"ĠDavis":10790,"ĠIndonesia":10791,"ĠBhaer":10792,"ĠOntario":10793,"JULlE":10794,"ĠKLAUSNER":10795,"55":10796,"Del":10797,"Ev":10798,"Nat":10799,"course":10800,"Ġtide":10801,"held":10802,"Ġwives":10803,"isible":10804,"Ġgre":10805,"veland":10806,"Ġhousing":10807,"Ġhal":10808,"Ġego":10809,"Ġweigh":10810,"ĠAriz":10811,"ĠPra":10812,"eller":10813,"Ġraces":10814,"Ġrushed":10815,"ĠDON":10816,"ĠRoc":10817,"Ġyourselves":10818,"ĠJan":10819,"ĠOak":10820,"udible":10821,"Ġtrace":10822,"icken":10823,"Ġgrain":10824,"Ġbron":10825,"Ġamendment":10826,"aund":10827,"Ġfounding":10828,"Ġpolite":10829,"ggy":10830,"ĠMarie":10831,"Ġsecondary":10832,"Ġinvite":10833,"Ġedges":10834,"Ġrib":10835,"ĠAllah":10836,"ĠMayweather":10837,"Ġbusinesses":10838,"Ġhopefully":10839,"mmet":10840,"Ġtested":10841,"Ġpractically":10842,"Ġgenetic":10843,"lights":10844,"Ġcovering":10845,"Ġinnov":10846,"Ġobser":10847,"isconsin":10848,"Ġdeny":10849,"Ġsuitable":10850,"ĠEgyptian":10851,"Ġshouted":10852,"Ġcontrast":10853,"Ġinstitutions":10854,"Ġresistance":10855,"ĠDragon":10856,"Ġdreadful":10857,");":10858,"Hit":10859,"Win":10860,"cor":10861,"fare":10862,"green":10863,"lu":10864,"song":10865,"Ġlaughter":10866,"ashes":10867,"vet":10868,"Ġbeef":10869,"rov":10870,"ĠDu":10871,"ĠRen":10872,"ĠRem":10873,"ĠFat":10874,"abilities":10875,"ĠKil":10876,"assador":10877,"Ġhelicop":10878,"Ġchances":10879,"Ġassess":10880,"insula":10881,"Ġinterse":10882,"ATH":10883,"ĠMaybe":10884,"Ġoperate":10885,"Ġ1951":10886,"Ġcopper":10887,"Ġchairs":10888,"âĢİ,":10889,"Ġparking":10890,"ĠSecurity":10891,"ĠGrandma":10892,"Ġpossessed":10893,"Ġtranslated":10894,"Ġdetective":10895,"Ġtravelled":10896,"Ġsituations":10897,"Ġguarantee":10898,"Ġdowntown":10899,"ĠSpeaker":10900,"07":10901,"Dude":10902,"EP":10903,"Ladies":10904,"Sweet":10905,"eight":10906,"iate":10907,"mind":10908,"pher":10909,"something":10910,"Ġtact":10911,"Ġtables":10912,"onge":10913,"Ġfairies":10914,"Ġpairs":10915,"Ġnaval":10916,"uru":10917,"uris":10918,"Ġgoin":10919,"ĠWould":10920,"ĠWOR":10921,"Ġsolemn":10922,"Ġabund":10923,"ĠRilla":10924,"ĠLuke":10925,"agu":10926,"Ġworker":10927,"ocated":10928,"Ġresidents":10929,"Ġrelatives":10930,"Ġsynd":10931,"Ġmonitor":10932,"Ġinstall":10933,"Ġobtain":10934,"Though":10935,"Ġairplane":10936,"Ġorganic":10937,"Ġdescribes":10938,"Ġsharing":10939,"Ġweakness":10940,"Ġgeomet":10941,"Ġtunnel":10942,"ĠWindows":10943,"Ã¦sar":10944,"oscow":10945,"British":10946,"Ġfirms":10947,"Best":10948,"SS":10949,"Ugh":10950,"ded":10951,"eyes":10952,"making":10953,"xual":10954,"Ġsits":10955,"itches":10956,"esc":10957,"Ġpanc":10958,"Ġnavig":10959,"uster":10960,"keys":10961,"Ġstages":10962,"ĠAgain":10963,"oute":10964,"ĠCzech":10965,"Ġgoat":10966,"ĠGun":10967,"ĠGary":10968,"Ġabdom":10969,"Ġabstract":10970,"Ġvital":10971,"ardo":10972,"Ġspeaks":10973,"ĠUk":10974,"Ġdisorder":10975,"Ġscattered":10976,"Ġchuck":10977,"ĠDevelopment":10978,"ĠIndepend":10979,"Ġmaintained":10980,"HEN":10981,"ebast":10982,"Ġsweat":10983,"Ġbarn":10984,"ĠOrchestra":10985,"REAM":10986,"Ġattractive":10987,"Ġcitizen":10988,"ymn":10989,"Ġprocedure":10990,"ĠCharlotte":10991,"Ġdiscipline":10992,"igenous":10993,"ĠSarhadi":10994,"Ġcalendar":10995,"lahoma":10996,"FF":10997,"Mer":10998,"Pop":10999,"Sus":11000,"gi":11001,"nest":11002,"word":11003,"Ġwolf":11004,"Ġbust":11005,"Ġmr":11006,"Ġfires":11007,"Ġgle":11008,"omot":11009,"idays":11010,"Ġsty":11011,"ĠAst":11012,"ilation":11013,"oret":11014,"Ġjunior":11015,"quet":11016,"Ġclar":11017,"reeze":11018,"Ġflows":11019,"Ġcaravan":11020,"otta":11021,"Ġaddressed":11022,"Ġlighthouse":11023,"Ġimprison":11024,"Ġinterfe":11025,"Ġtragedy":11026,"Ġrefuge":11027,"Ġreturns":11028,"Ġpatri":11029,"Ġhoriz":11030,"ĠTrust":11031,"rooms":11032,"Ġeducational":11033,"Ġetern":11034,"ĠCorps":11035,"Ġneighbors":11036,"ĠDevil":11037,"Ġtranslation":11038,"rishna":11039,"ĠMarshall":11040,"arette":11041,"Ġcandidates":11042,"ĠNazi":11043,"Jimmy":11044,"Jeff":11045,"Ġimpressive":11046,"Ġsubsequently":11047,"Ġoccasions":11048,"Ġalphabet":11049,"ĠHouston":11050,"Richard":11051,"89":11052,"Hope":11053,"Morning":11054,"XT":11055,"bound":11056,"mi":11057,"Ġ{":11058,"Ġmild":11059,"Ġlyrics":11060,"Ġga":11061,"amar":11062,"ĠSay":11063,"ĠSorry":11064,"ĠAth":11065,"ĠPR":11066,"Ġrab":11067,"abled":11068,"ods":11069,"Ġexhibition":11070,"Ġexternal":11071,"ĠKn":11072,"Ġsprang":11073,"Ġrolling":11074,"Ġadap":11075,"Ġflies":11076,"Ġresign":11077,"Ġkills":11078,"Ġbelieves":11079,"âĻªâĻª":11080,"Ġconservative":11081,"Ġdistur":11082,"Ġobst":11083,"Ġfract":11084,"Ġindicated":11085,"ertainly":11086,"Ġdragged":11087,"Ġcolours":11088,"ĠProject":11089,"Anne":11090,"Ġoccurs":11091,"Ġceased":11092,"Ġapproval":11093,"Ġelectronic":11094,"Ġinvolves":11095,"Ġtrading":11096,"Ġdeeper":11097,"Ġlabour":11098,"Ġrepresentative":11099,"success":11100,"Ġstrip":11101,"Äģn":11102,"ĠLouisiana":11103,"Ġoxid":11104,"ĠJudy":11105,"Ġrevenue":11106,"Ġgrocer":11107,"ĠCommunity":11108,"natural":11109,"Ġquantity":11110,"ĠCaesar":11111,"ĠJonathan":11112,"Ġmammals":11113,"Ġashore":11114,"ĠMinnesota":11115,"85":11116,"==":11117,"Fred":11118,"Gold":11119,"Sal":11120,"big":11121,"make":11122,"oan":11123,"produ":11124,"rÃ©":11125,"Ġbattles":11126,"Ġcage":11127,"Ġfest":11128,"Ġdia":11129,"Ġgig":11130,"Ġnaught":11131,"acious":11132,"iry":11133,"ĠFel":11134,"arded":11135,"earl":11136,"Ġpeculiar":11137,"Ġcler":11138,"Ġaffection":11139,"Ġunited":11140,"Ġunfortunately":11141,"ĠInca":11142,"ocol":11143,"forest":11144,"Ġbucks":11145,"azy":11146,"Ġdifferently":11147,"Ġsubstance":11148,"Ġlocations":11149,"Ġcontinent":11150,"Ġsolar":11151,"Ġinformed":11152,"chair":11153,"ĠPlace":11154,"Ġprocesses":11155,"Ġcircuit":11156,"Ġcloset":11157,"Ġfaculty":11158,"Ġjumping":11159,"Ġmidst":11160,"Drink":11161,"ĠSquare":11162,"ĠLynde":11163,"Ġliberty":11164,"ĠPrefecture":11165,"Ġschedule":11166,"ĠNobel":11167,"ĠWelsh":11168,"!'":11169,"800":11170,"Bu":11171,"Kat":11172,"LING":11173,"Pe":11174,"hon":11175,"lan":11176,"person":11177,"rade":11178,"uary":11179,"Ġtons":11180,"Ġaer":11181,"Ġsung":11182,"ancing":11183,"Ġdict":11184,"ĠImp":11185,"alty":11186,"Ġstiff":11187,"ĠCham":11188,"ĠHOY":11189,"Ġgolf":11190,"oper":11191,"ĠWoman":11192,"Ġrust":11193,"ĠDallas":11194,"ĠNag":11195,"Ġoutput":11196,"ĠYale":11197,"Ġprev":11198,"velt":11199,"Ġrealise":11200,"Ġconsidering":11201,"Ġstays":11202,"Ġkidney":11203,"ussy":11204,"OUGH":11205,"ATION":11206,"chell":11207,"Ġpainter":11208,"Ġlaying":11209,"Ġraising":11210,"Ġlaura":11211,"Ġmistress":11212,"Ġcandy":11213,"orkshire":11214,"Ġpigs":11215,"Ġbutterfly":11216,"Ġvulner":11217,"comfortable":11218,"ĠHOYT":11219,"Da":11220,"shi":11221,"Ġq":11222,"rels":11223,"Ġcable":11224,"Ġfict":11225,"arians":11226,"Ġnasty":11227,"utt":11228,"Ġrele":11229,"aments":11230,"ĠShip":11231,"Ġstern":11232,"Ġuna":11233,"ĠMaced":11234,"illery":11235,"ĠHuman":11236,"iler":11237,"ĠTour":11238,"ĠRoy":11239,"ĠJam":11240,"odore":11241,"Ġvoc":11242,"Ġpeep":11243,"necess":11244,"irect":11245,"oyage":11246,"Ġhelpless":11247,"Ġkindly":11248,"ĠBrussels":11249,"Ġregiment":11250,"ĠDeh":11251,"Ġglory":11252,"asht":11253,"Ġmothers":11254,"Ġlighting":11255,"Ġtrapped":11256,"Through":11257,"nothing":11258,"Ġhurried":11259,"Ġawkward":11260,"Ġfoods":11261,"Ġstatements":11262,"Ġreligions":11263,"Ġproposal":11264,"Def":11265,"Ġinnit":11266,"Ġfacility":11267,"Ġburnt":11268,"track":11269,"ĠMalays":11270,"Ġexecuted":11271,"Ġreveal":11272,"Ġloaded":11273,"ĠJulie":11274,"Ġignor":11275,"Ġanxiety":11276,"Ġmultipl":11277,"heimer":11278,"ĠDiego":11279,"Ġkittie":11280,"Queen":11281,"Cont":11282,"eges":11283,"free":11284,"hent":11285,"isn":11286,"Ġfits":11287,"Ġdat":11288,"Ġefficiency":11289,"adays":11290,"ĠALL":11291,"ĠHem":11292,"ulance":11293,"Ġrats":11294,"ĠDer":11295,"ĠLarry":11296,"Ġouter":11297,"ĠEnd":11298,"ĠKaren":11299,"ĠStand":11300,"Ġgrows":11301,"Ġdispl":11302,"Ġdisgr":11303,"Ġflour":11304,"Ġscan":11305,"gins":11306,"Ġsubt":11307,"Ġdisturb":11308,"Going":11309,"Ġfuckin":11310,"Ġlegit":11311,"Ġpresently":11312,"ORE":11313,"Ġcuts":11314,"oosevelt":11315,"Club":11316,"Ġencoun":11317,"Ġnovels":11318,"Ġdeliber":11319,"Ġassistance":11320,"Ġpraised":11321,"Ġmeasured":11322,"ĠCommunist":11323,"Ġhydro":11324,"ĠAssyrian":11325,"Ġacceleration":11326,"Ġbacteria":11327,"Ġaccompanied":11328,"Af":11329,"Far":11330,"Men":11331,"Ray":11332,"SA":11333,"Sister":11334,"bone":11335,"baby":11336,"cal":11337,"count":11338,"Ġturb":11339,"Ġtheories":11340,"Ġwipe":11341,"Ġske":11342,"Ġbum":11343,"Ġbishop":11344,"Ġcord":11345,"leton":11346,"Ġrehe":11347,"ĠSult":11348,"ĠSky":11349,"ĠHorn":11350,"ando":11351,"Young":11352,"ĠPur":11353,"ĠWisconsin":11354,"ĠDom":11355,"Ġconvent":11356,"Ġconvention":11357,"Ġgrat":11358,"Instead":11359,"Ġbug":11360,"Ġinterior":11361,"Ġexpansion":11362,"Ġtopic":11363,"Ġfreely":11364,"headed":11365,"Ġapproaching":11366,"Ġcreep":11367,"Ġdestro":11368,"Ġdropping":11369,"remember":11370,"Ġcombat":11371,"Ġinfinite":11372,"ĠPerhaps":11373,"Ġopinions":11374,"ĠGirls":11375,"Ġblessed":11376,"Ġuniversal":11377,"Ġassignment":11378,"Ġtissue":11379,"ĠLewis":11380,"600":11381,"Bre":11382,"Ever":11383,"pot":11384,"vard":11385,"Ġwagon":11386,"Ġborders":11387,"Ġoath":11388,"Ġcure":11389,"orus":11390,"Ġpitch":11391,"Ġgear":11392,"stick":11393,"Ġstove":11394,"ĠCall":11395,"olished":11396,"estly":11397,"ĠFree":11398,"ĠLast":11399,"ĠLead":11400,"Ġdont":11401,"ubs":11402,"ĠVar":11403,"anga":11404,"ĠYorkshire":11405,"Ġcoins":11406,"eek":11407,"Ġcharity":11408,"cycle":11409,"Ġbreed":11410,"annah":11411,"Ġartific":11412,"Ġgenerations":11413,"Ġtribes":11414,"Ġrounds":11415,"ĠGrace":11416,"iterranean":11417,"Ġpurse":11418,"Ġstealing":11419,"Ġvalid":11420,"aimie":11421,"ĠMicro":11422,"Ġdirections":11423,"Ġtechnique":11424,"Ġcookie":11425,"supp":11426,"ĠHighness":11427,"Quite":11428,"Ġscientist":11429,"Connor":11430,"Ġtrucks":11431,"Ġscholar":11432,"Ġrejected":11433,"ĠBowl":11434,"Ġbench":11435,"Ġtremendous":11436,"Ang":11437,"Holy":11438,"KING":11439,"Pretty":11440,"TO":11441,"fr":11442,"hop":11443,"kers":11444,"xic":11445,"ï¼":11446,"isha":11447,"Ġchess":11448,"Ġdick":11449,"Ġduke":11450,"Ġtoes":11451,"athe":11452,"Ġlux":11453,"ĠAgency":11454,"ĠWWE":11455,"ĠDaisy":11456,"ĠGriff":11457,"ĠRy":11458,"ĠLim":11459,"ĠJu":11460,"Ġtrun":11461,"Ġlend":11462,"Ġcompounds":11463,"Ġblast":11464,"being":11465,"Ġresigned":11466,"Ġmines":11467,"ĠYouTube":11468,"Ġpresum":11469,"Ġdecre":11470,"tenance":11471,"ommod":11472,"Ġdischar":11473,"Ġsentiment":11474,"ĠOrgan":11475,"Ġsilk":11476,"ĠChah":11477,"ĠChand":11478,"Ġperiods":11479,"Ġbearing":11480,"Ġ1928":11481,"Ġfreak":11482,"inistration":11483,"Ġtaxi":11484,"Ġfunding":11485,"Ġroutine":11486,"Ġemployment":11487,"Ġpanic":11488,"ĠPeace":11489,"Ġpredict":11490,"Ġsequel":11491,"avalry":11492,"Finally":11493,"ĠPLAY":11494,"Ġdisgusting":11495,"ĠArizona":11496,"69":11497,"CA":11498,"Clear":11499,"DP":11500,"bish":11501,"mount":11502,"inch":11503,"nda":11504,"Ġfert":11505,"Ġdated":11506,"oting":11507,"Ġhed":11508,"imens":11509,"Ġreci":11510,"ĠSO":11511,"ĠAR":11512,"ĠARE":11513,"ĠBeng":11514,"ĠPad":11515,"ĠPho":11516,"ĠGulf":11517,"ersen":11518,"Ġshocked":11519,"ĠNHL":11520,"Ġ1919":11521,"ĠKa":11522,"Ġarrow":11523,"Ġclients":11524,"ĠStat":11525,"ĠStadium":11526,"Ġfeud":11527,"pled":11528,"izer":11529,"ĠInstead":11530,"ĠYoon":11531,"Ġpockets":11532,"aware":11533,"Ġsla":11534,"Ġconsent":11535,"Ġparam":11536,"Ġdreaming":11537,"Ġcondem":11538,"ĠEmmy":11539,"Neither":11540,"Ġantib":11541,"ĠMedic":11542,"Ġnetworks":11543,"Ġconductor":11544,"white":11545,"Ġqualified":11546,"Ġmagnific":11547,"Ġblanket":11548,"Ġnearest":11549,"Ġconsequences":11550,"ĠNapoleon":11551,"05":11552,"August":11553,"Count":11554,"Haven":11555,"Rad":11556,"jamin":11557,"kur":11558,"later":11559,"oqu":11560,"ref":11561,"hant":11562,"itis":11563,"Ġori":11564,"Ġmast":11565,"Ġdared":11566,"Ġnigg":11567,"owell":11568,"owered":11569,"vell":11570,"Ġhay":11571,"imir":11572,"Ġstake":11573,"ĠHockey":11574,"ĠPap":11575,"thodox":11576,"ppers":11577,"ĠKon":11578,"Ġspray":11579,"hism":11580,"ĠVienna":11581,"ĠUnivers":11582,"Ġrecovery":11583,"ials":11584,"Ġ44":11585,"Ġcheek":11586,"Ġaccommod":11587,"Ġstrings":11588,"ieth":11589,"ĠThom":11590,"Thomas":11591,"Ġpublication":11592,"Ġanniversary":11593,"Ġavo":11594,"Ġsneak":11595,"THAT":11596,"ĠAmazon":11597,"USIC":11598,"Ġenjoying":11599,"ĠPola":11600,"Ġcivilization":11601,"Ġpeaceful":11602,"handed":11603,"Apparently":11604,"ĠIslamic":11605,"Ġsuspicious":11606,"Ġpurchase":11607,"ĠOklahoma":11608,"Especially":11609,"Ġauthors":11610,"Ġfranchise":11611,"Ġslavery":11612,"\";":11613,"Eight":11614,"Fort":11615,"French":11616,"IX":11617,"San":11618,"Use":11619,"War":11620,"cat":11621,"dess":11622,"hour":11623,"lines":11624,"parent":11625,"ĠÐ":11626,"Ġmac":11627,"Ġmock":11628,"Ġfib":11629,"ashi":11630,"ĠSA":11631,"rily":11632,"ĠMoscow":11633,"ante":11634,"throp":11635,"Ġje":11636,"ĠDream":11637,"ĠGOT":11638,"ĠRound":11639,"ĠRights":11640,"ĠLane":11641,"ĠJob":11642,"rah":11643,"ĠEarl":11644,"iah":11645,"Ġgrim":11646,"Ġbrut":11647,"Ġens":11648,"Ġbund":11649,"mbling":11650,"ĠĠĠĠĠ":11651,"ĠAnderson":11652,"Ġcentim":11653,"aneously":11654,"Ġwalks":11655,"Ġmoder":11656,"Ġ1934":11657,"Ġchoices":11658,"ambling":11659,"Ġgrandmother":11660,"ĠWhit":11661,"Trust":11662,"Ġselfish":11663,"ĠNext":11664,"Ġconsideration":11665,"Ġcommanded":11666,"Ġhistorian":11667,"Ġdelivery":11668,"Ġirrit":11669,"Ġbelly":11670,"Ġargued":11671,"Ã¨re":11672,"Ġstretch":11673,"ĠHarris":11674,"ĠTayeb":11675,"Whether":11676,"Ġsouls":11677,"ĠDakota":11678,"65":11679,"Cent":11680,"Imp":11681,"PH":11682,"Sch":11683,"Water":11684,"dig":11685,"ju":11686,"town":11687,"Ġwisdom":11688,"Ġcul":11689,"Ġcrop":11690,"Ġgender":11691,"level":11692,"vex":11693,"Ġreaches":11694,"river":11695,"ĠBenn":11696,"ĠProp":11697,"Ġrage":11698,"ĠDVD":11699,"ĠRidge":11700,"ĠFederation":11701,"Ġbrick":11702,"orns":11703,"iza":11704,"ĠVas":11705,"ĠYet":11706,"Ġcarries":11707,"Ġ41":11708,"irds":11709,"Ġphones":11710,"Ġevolved":11711,"Ġtransition":11712,"Ġrecorder":11713,"Ġpromotion":11714,"Ġdealt":11715,"ĠFranz":11716,"Ġconfusion":11717,"Ġlayer":11718,"Ġelectron":11719,"REE":11720,"Ġhunger":11721,"Ġfundamental":11722,"Ġburden":11723,"cules":11724,"ĠApple":11725,"Ġfrequent":11726,"rella":11727,"Ġpuzzle":11728,"ĠTayebi":11729,"77":11730,"Cle":11731,"Cons":11732,"DIC":11733,"High":11734,"Mel":11735,"PR":11736,"SR":11737,"Supp":11738,"Sighs":11739,"VI":11740,"named":11741,"offic":11742,"top":11743,"Ġtid":11744,"Ġsank":11745,"Ġol":11746,"Ġdip":11747,"Ġgap":11748,"Ġgrie":11749,"omi":11750,"icip":11751,"Ġreverse":11752,"ĠAthe":11753,"ĠBack":11754,"ĠTen":11755,"ĠRun":11756,"ieved":11757,"ĠFle":11758,"ĠLyn":11759,"ĠNash":11760,"Ġvamp":11761,"Ġtwist":11762,"Ġbrains":11763,"Ġbloke":11764,"Ġslope":11765,"Ġsleepy":11766,"Ġzoo":11767,"Ġformerly":11768,"Ġfilling":11769,"ĠQueens":11770,"Ġbelonging":11771,"guing":11772,"gressive":11773,"Ã¡n":11774,"ĠBobby":11775,"ĠAtlanta":11776,"Ġcrowded":11777,"Ġmechanism":11778,"Ġcontrary":11779,"Ġpretending":11780,"helle":11781,"Ġnursery":11782,"ĠBrothers":11783,"Ġancestors":11784,"Ġexplosion":11785,"Ġexhausted":11786,"Ġcontemporary":11787,"Ġaccurate":11788,"Ġpursue":11789,"Ġdistinguished":11790,"ebastian":11791,"Cast":11792,"Ham":11793,"Met":11794,"zi":11795,"Î±":11796,"ĠÅ":11797,"reh":11798,"Ġcin":11799,"edge":11800,"encer":11801,"usalem":11802,"Ġweary":11803,"ĠSN":11804,"ĠAuthor":11805,"ilight":11806,"ĠBaker":11807,"oples":11808,"Ġrating":11809,"istinct":11810,"ĠLisa":11811,"Ġcongress":11812,"Ġ(),":11813,"ĠEver":11814,"inding":11815,"Ġintr":11816,"Ġuncomfortable":11817,"Ġbuck":11818,"formula":11819,"Ġextension":11820,"ĠChristopher":11821,"Ġ1932":11822,"Ġelectrical":11823,"Ġconcerning":11824,"Ġwallet":11825,"entlemen":11826,"Ġmounted":11827,"Ġpenny":11828,"Ġbullshit":11829,"Ġcompanions":11830,"Ġemployees":11831,"Ġessay":11832,"Ġcameras":11833,"Ġlinks":11834,"Guys":11835,"Ġrubber":11836,"ĠMurray":11837,"Ġranked":11838,"warf":11839,"Ġshouting":11840,"ĠRogers":11841,"Ġcabinet":11842,"ĠServices":11843,"Ġdialect":11844,"Air":11845,"Bur":11846,"Dick":11847,"Mont":11848,"cod":11849,"Ġau":11850,"Ġfruits":11851,"Ġpressed":11852,"Ġbees":11853,"uto":11854,"acha":11855,"ĠSports":11856,"ĠMit":11857,"ĠMas":11858,"ĠMack":11859,"uran":11860,"Ġwhilst":11861,"Ġsections":11862,"ĠBee":11863,"open":11864,"thy":11865,"Ġalle":11866,"ĠRO":11867,"aba":11868,"oser":11869,"Ġconverted":11870,"ĠNation":11871,"igration":11872,"Ġvocal":11873,"Ġoverse":11874,"ĠInf":11875,"closed":11876,"Ġhappily":11877,"Ġdescent":11878,"Ġaccent":11879,"Ġcharming":11880,"Ġbush":11881,"Ġrestored":11882,"Ġdrill":11883,"Ġtribe":11884,"ATTER":11885,"Ġhumanity":11886,"ĠCharusa":11887,"ĠAfghan":11888,"Ġcooked":11889,"Ġprayers":11890,"Otherwise":11891,"Ġderived":11892,"Ġmeasures":11893,"ĠStudios":11894,"ĠCarlos":11895,"ĠArgentina":11896,"Ġrhythm":11897,"08":11898,"Dis":11899,"Jean":11900,"LO":11901,"hol":11902,"houses":11903,"iu":11904,"nik":11905,"Â²":11906,"ÂĻ":11907,"Ġtin":11908,"Ġbri":11909,"Ġchip":11910,"asures":11911,"lein":11912,"Ġhire":11913,"ĠCEO":11914,"ifty":11915,"chuckles":11916,"ĠHaven":11917,"ĠBou":11918,"Ġjoking":11919,"ĠRalph":11920,"ĠNC":11921,"ĠNine":11922,"ĠJose":11923,"rawn":11924,"Ġprospect":11925,"ichi":11926,"Ġ1900":11927,"high":11928,"cale":11929,"ĠYu":11930,"issipp":11931,"Ġchim":11932,"irlines":11933,"oots":11934,"Ġcheaper":11935,"Ġmonaster":11936,"Ġgloom":11937,"Ġcared":11938,"ANS":11939,"Ġcollaps":11940,"Ġextract":11941,"ĠSprings":11942,"Ġ99":11943,"Ġlearnt":11944,"Ġmembership":11945,"Ġdestination":11946,"Ġterribly":11947,"Ġsuspend":11948,"Ġarmies":11949,"ĠNeil":11950,"afa":11951,"APRI":11952,"ĠArea":11953,"Ġfortun":11954,"Ġimmense":11955,"Ġcomedian":11956,"Ġclimbed":11957,"ĠONE":11958,"Ġvoting":11959,"ĠBuilding":11960,"fortunate":11961,"Christian":11962,"WHAT":11963,"Ġintelligent":11964,"Ġcomponent":11965,"Ġmathematics":11966,"Ġwrapped":11967,"ĠBusiness":11968,"ĠBrooklyn":11969,"ĠAffairs":11970,"ĠBelgium":11971,"GUN":11972,"PER":11973,"Sat":11974,"SON":11975,"Ye":11976,"eve":11977,"girl":11978,"iable":11979,"nut":11980,"Ġton":11981,"Ġbored":11982,"Ġdot":11983,"Ġreun":11984,"ĠCold":11985,"ĠMong":11986,"ĠMerc":11987,"ĠBurn":11988,"anta":11989,"Ġgoss":11990,"unted":11991,"ĠWonder":11992,"ĠDoc":11993,"ĠDomin":11994,"ĠFollow":11995,"ĠNO":11996,"apse":11997,"agine":11998,"pson":11999,"venth":12000,"ĠAlicia":12001,"Ġwarned":12002,"enez":12003,"ĠThrough":12004,"Ġcolony":12005,"Ġrig":12006,"ika":12007,"Ġsquee":12008,"Ġdivisions":12009,"boat":12010,"Ġsatell":12011,"ĠManchester":12012,"Ġadvis":12013,"ĠAbraham":12014,"Ġdeputy":12015,"ĠExcuse":12016,"Ġsailors":12017,"ĠLaure":12018,"Speaking":12019,"Ġpacked":12020,"Ġtourist":12021,"Plus":12022,"Ġholidays":12023,"Ġpunished":12024,"Ġcoward":12025,"Whoo":12026,"Ġconstitu":12027,"ĠSolomon":12028,"ĠCleveland":12029,"ĠHungarian":12030,"Ġnomination":12031,"Ġscheduled":12032,"ĠConfederate":12033,"ĠDetroit":12034,"Species":12035,"Ġmartial":12036,"original":12037,"Ġgesture":12038,"79":12039,"Bi":12040,"Hard":12041,"Id":12042,"Woman":12043,"cross":12044,"iary":12045,"Ġwoo":12046,"Ġsoph":12047,"Ġoven":12048,"Ġdiver":12049,"Ġpace":12050,"icular":12051,"Ġbeard":12052,"ĠSOME":12053,"rik":12054,"ĠChampionships":12055,"Ġdoin":12056,"opy":12057,"opes":12058,"ĠPass":12059,"gels":12060,"Ġdeleg":12061,"Ġalert":12062,"ĠRabbit":12063,"ĠLax":12064,"ĠNice":12065,"Ġoutta":12066,"ivia":12067,"Ġquote":12068,"olla":12069,"wegian":12070,"Ġbeloved":12071,"Ġsurf":12072,"show":12073,"ĠGray":12074,"ĠGrammy":12075,"Ġsteep":12076,"ĠShort":12077,"Ġmessenger":12078,"Ġtempor":12079,"ĠSeven":12080,"Ġ1935":12081,"Ġprotecting":12082,"Ġtraditions":12083,"ĠAmanda":12084,"ĠSwiss":12085,"ipper":12086,"ĠDonald":12087,"Ġviolin":12088,"ĠRepublicans":12089,"Ġseparation":12090,"Ġvolcan":12091,"Ġreduction":12092,"Ġsalary":12093,"Ġdenied":12094,"Carl":12095,"Ġblessing":12096,"Ġambulance":12097,"Ġchatter":12098,"ĠForeign":12099,"ĠSwedish":12100,"Ġpurchased":12101,"Ġhammer":12102,"Ġembarrassing":12103,"Ġbuttons":12104,"Ġfossil":12105,"Half":12106,"Ġcheeks":12107,"62":12108,"March":12109,"PLE":12110,"Ġturt":12111,"Ġward":12112,"erg":12113,"Ġbury":12114,"anas":12115,"Ġpier":12116,"Ġpills":12117,"arms":12118,"asm":12119,"Ġgene":12120,"acter":12121,"riac":12122,"ĠCensus":12123,"ĠMs":12124,"ĠMove":12125,"ifies":12126,"Ġseal":12127,"ĠHig":12128,"ĠHicks":12129,"ĠBoss":12130,"ĠBox":12131,"olin":12132,"olics":12133,"ĠWy":12134,"Ġjungle":12135,"Ġdeals":12136,"ĠFalls":12137,"ĠNay":12138,"ĠNem":12139,"ĠJenn":12140,"Ġprocl":12141,"ĠOrigin":12142,"ako":12143,"Ġnoon":12144,"ĠKr":12145,"ivals":12146,"active":12147,"ovie":12148,"Ġblown":12149,"interest":12150,"Ġrecurs":12151,"olds":12152,"Ġdesired":12153,"grat":12154,"Ã©e":12155,"Ġswept":12156,"ologies":12157,"aneous":12158,"Ġgenerous":12159,"flu":12160,"ĠAllies":12161,"Ġcreates":12162,"cover":12163,"Ġengagement":12164,"Ġstruct":12165,"Ġapproached":12166,"ĠAmong":12167,"Ġpopularity":12168,"ĠExec":12169,"ĠSyria":12170,"Ġcoverage":12171,"strong":12172,"Ġbehave":12173,"trans":12174,"Ġloads":12175,"kerchief":12176,"Coming":12177,"Ġtroubled":12178,"Ġspinning":12179,"Ġvariable":12180,"ï¼Į":12181,"APRIO":12182,"Bro":12183,"Born":12184,"Leg":12185,"cated":12186,"sor":12187,"Ġther":12188,"hara":12189,"org":12190,"Ġpic":12191,"atar":12192,"Ġgifts":12193,"amma":12194,"steps":12195,"ĠAL":12196,"ĠCox":12197,"ieval":12198,"Ġshy":12199,"ĠFern":12200,"osidodecahedron":12201,"ĠLas":12202,"Ġconsec":12203,"Ġconception":12204,"ĠNancy":12205,"Ġupside":12206,"ĠOUT":12207,"Ġ1918":12208,"ĠKang":12209,"Ġarchae":12210,"ogy":12211,"iren":12212,"rency":12213,"Ġthrust":12214,"Ġflights":12215,"Ġscen":12216,"Ġcriter":12217,"ĠAlb":12218,"Ġconspir":12219,"Ġassure":12220,"Ġartistic":12221,"Ġdeadly":12222,"Ġpromote":12223,"Ġprovision":12224,"Ġbusinessman":12225,"iverpool":12226,"Ġtennis":12227,"Ġsuccession":12228,"Ġresulting":12229,"Ġsunshine":12230,"Ġdiag":12231,"Ġdrops":12232,"without":12233,"Ġcatching":12234,"Ġninth":12235,"ĠLawrence":12236,"Adm":12237,"Between":12238,"ĠWHAT":12239,"Ġinterpretation":12240,"Ġinsects":12241,"ittsburgh":12242,"urisd":12243,"DICAPRIO":12244,"87":12245,"?!":12246,"Kn":12247,"Mac":12248,"Might":12249,"Mah":12250,"PC":12251,"wyn":12252,"yers":12253,"Ġcries":12254,"aration":12255,"Ġloo":12256,"Ġgreed":12257,"Ġhence":12258,"ĠCur":12259,"ĠChes":12260,"iller":12261,"ĠHills":12262,"ĠBorough":12263,"Ġ1000":12264,"oped":12265,"ĠGy":12266,"ĠRoosevelt":12267,"oshi":12268,"ĠLI":12269,"respect":12270,"ortion":12271,"Ġquid":12272,"avia":12273,"Ġmakeup":12274,"Ġfinance":12275,"Ġharsh":12276,"Ġstrangers":12277,"Ġindicate":12278,"Ġtransmit":12279,"Ġnicely":12280,"rophy":12281,"ĠClare":12282,"ĠGround":12283,"ĠConvention":12284,"Ġranks":12285,"Ġveter":12286,"Shh":12287,"ĠCommand":12288,"Ġchoir":12289,"amba":12290,"Ġtreaty":12291,"Ġ1929":12292,"Ġmisunder":12293,"OMAN":12294,"Ġidentical":12295,"ĠFranklin":12296,"ographical":12297,"Ġdemands":12298,"Ġcriticized":12299,"ĠMelbourne":12300,"Ġpraise":12301,"ĠDenmark":12302,"Ġadvertising":12303,"Ġhypot":12304,"Ġvegetables":12305,"ĠPortugal":12306,"Ġsympathy":12307,"Ġwhistle":12308,"Ġingred":12309,"Ġbehaviour":12310,".-":12311,"Lee":12312,"iw":12313,"shire":12314,"ouver":12315,"Ġsoutheast":12316,"Ġber":12317,"anim":12318,"Ġdough":12319,"Ġpunk":12320,"Ġpause":12321,"amous":12322,"ĠSara":12323,"sta":12324,"ĠAx":12325,"ĠABC":12326,"Ġdoct":12327,"ĠHell":12328,"ĠBund":12329,"ĠPerry":12330,"ĠTR":12331,"things":12332,"Ġalike":12333,"Ġalleg":12334,"ĠFine":12335,"ĠFuck":12336,"ĠLau":12337,"ĠLisbon":12338,"hane":12339,"ĠJin":12340,"cked":12341,"Ġvit":12342,"ĠKu":12343,"Ġdaylight":12344,"Ġhandling":12345,"Ġowns":12346,"Ġbelieving":12347,"Ġproduces":12348,"ĠZone":12349,"Ġcurve":12350,"Ġfights":12351,"ONG":12352,"Ġfucked":12353,"Ġdefensive":12354,"Ġexperiments":12355,"ĠWarren":12356,"Ġincreases":12357,"borough":12358,"Ġfemales":12359,"ĠMediterranean":12360,"Ġpercentage":12361,"Indeed":12362,"Phone":12363,"Ġencouraged":12364,"Ġpolyhedron":12365,"Ġadventures":12366,"Ġpillow":12367,"Ġcigarette":12368,"Ġprocedures":12369,"ĠSelena":12370,"Ġdignity":12371,"ĠHolland":12372,"issippi":12373,"\"'":12374,"59":12375,"AB":12376,"BUT":12377,"East":12378,"Easy":12379,"Jac":12380,"Ol":12381,"Port":12382,"Shoot":12383,"chard":12384,"jin":12385,"lied":12386,"mun":12387,"mers":12388,"mare":12389,"pres":12390,"Äį":12391,"Ġwag":12392,"Ġferry":12393,"Ġfiring":12394,"Ġporn":12395,"Ġpatch":12396,"atoes":12397,"user":12398,"acco":12399,"Ġweld":12400,"ĠSandy":12401,"stall":12402,"ĠAle":12403,"ĠPun":12404,"ĠTun":12405,"ĠTel":12406,"Ġjerk":12407,"ĠDC":12408,"umns":12409,"Ġabe":12410,"ĠRachel":12411,"ĠEinstein":12412,"Ġvest":12413,"Ġvague":12414,"Ġ1914":12415,"Ġunemploy":12416,"Ġbetray":12417,"Ġdisgu":12418,"International":12419,"aleh":12420,"Ġsuburb":12421,"Being":12422,"Ġassets":12423,"Ġsmallest":12424,"Ġhumor":12425,"Ġhath":12426,"Ġdesigner":12427,"Ġpractices":12428,"Ġcleaned":12429,"whoa":12430,"APP":12431,"Ġregularly":12432,"ĠDarwin":12433,"Ġcycl":12434,"Ġfrequency":12435,"Ġignore":12436,"Ġchemicals":12437,"ĠJefferson":12438,"becca":12439,"Ġagriculture":12440,"Ġelevator":12441,"ĠCuba":12442,"Ġsociet":12443,"Ġvaccine":12444,"Ġdeaf":12445,"400":12446,"Hy":12447,"Having":12448,"KS":12449,"LSB":12450,"Max":12451,"Sur":12452,"URE":12453,"vals":12454,"Ãª":12455,"Ġtales":12456,"Ġtension":12457,"Ġsab":12458,"itate":12459,"itness":12460,"Ġod":12461,"Ġmales":12462,"orne":12463,"Ġyog":12464,"Ġhut":12465,"usions":12466,"Ġthumb":12467,"Ġbegg":12468,"Ġeats":12469,"ĠSW":12470,"storm":12471,"ĠAcc":12472,"ĠHIS":12473,"ĠPC":12474,"ĠWANT":12475,"ĠGra":12476,"ista":12477,"ĠREA":12478,"ĠJen":12479,"ĠEight":12480,"Ġ1917":12481,"Ġmanifest":12482,"ĠVik":12483,"Ġmuscle":12484,"Ġtragic":12485,"ĠPrice":12486,"Ġclassified":12487,"ĠProdu":12488,"Ġpainful":12489,"Anybody":12490,"Ġlocalities":12491,"Ġdestiny":12492,"ĠGuy":12493,"yram":12494,"Ġmistaken":12495,"Ġrecognised":12496,"Ġcircus":12497,"Ġobservation":12498,"Ġconvicted":12499,"Ġcandle":12500,"ĠMohammad":12501,"White":12502,"ĠDemocrats":12503,"Ġsuspected":12504,"Ġreactions":12505,"Ġdiameter":12506,"Ġpreparation":12507,"ĠLibrary":12508,"Ġconcluded":12509,"Ġfabric":12510,"Ġstrategic":12511,"Ġalgorithm":12512,"ĠAlfred":12513,"Bull":12514,"Dun":12515,"Nick":12516,"Roman":12517,"RSB":12518,"del":12519,"giving":12520,"sun":12521,"sky":12522,"xide":12523,"oro":12524,"Ġpile":12525,"eta":12526,"usk":12527,"imony":12528,"ĠAge":12529,"illes":12530,"ifully":12531,"olia":12532,"ths":12533,"Ġrates":12534,"Ġsob":12535,"Ġshone":12536,"Ġconver":12537,"ĠJuan":12538,"orting":12539,"Ġtrash":12540,"Ġspan":12541,"acey":12542,"Ġlectures":12543,"ptic":12544,"ovak":12545,"Ġcarpet":12546,"Ġchlor":12547,"Ġhomework":12548,"Ġsubstant":12549,"ĠAngel":12550,"lessness":12551,"Looking":12552,"Ġsignals":12553,"Ġexplo":12554,"Ġexplains":12555,"ĠAllied":12556,"Ġdefine":12557,"Ġpoliticians":12558,"Ġcoron":12559,"Ġcommunicate":12560,"rapes":12561,"hampagne":12562,"Ġlayout":12563,"END":12564,"Ġ1933":12565,"Ġsuggestion":12566,"Ġbullets":12567,"Ġtraveling":12568,"ĠDemi":12569,"Ã¼r":12570,"Ġpsychiat":12571,"Ġbells":12572,"Seven":12573,"Ã¶n":12574,"ĠJudge":12575,"Ġcontribution":12576,"Ġconcentration":12577,"ĠRicky":12578,"ĠEthiop":12579,"ĠAthlet":12580,"ĠMalaysia":12581,"CO":12582,"Roll":12583,"Ter":12584,"via":12585,"zheimer":12586,"ÏĦ":12587,"ĠÎ¿":12588,"Ġmol":12589,"orable":12590,"Ġnotion":12591,"ĠBi":12592,"ĠWat":12593,"ĠWag":12594,"ĠWolf":12595,"elli":12596,"ĠGyp":12597,"ĠRap":12598,"ĠRoom":12599,"ĠLeb":12600,"ĠNixon":12601,"igious":12602,"igma":12603,"Ġmans":12604,"ĠKirk":12605,"Ġspots":12606,"ĠUpper":12607,"ishment":12608,"Ġquack":12609,"Ġamateur":12610,"Ġcompare":12611,"Ġserial":12612,"Ġscores":12613,"orship":12614,"Ġmustn":12615,"ventually":12616,"Ġpreserved":12617,"ibbean":12618,"Ġdrown":12619,"Ġpointing":12620,"Ġconsol":12621,"Ġswitched":12622,"ierre":12623,"Ġlocomot":12624,"Ġmaintenance":12625,"Reg":12626,"Ġbarrel":12627,"untary":12628,"Ġrevol":12629,"mingham":12630,"Ġmurm":12631,"Ġabsurd":12632,"colm":12633,"regon":12634,"related":12635,"Ġrobot":12636,"Ġarguments":12637,"Ġchallenged":12638,"ĠPopeye":12639,"Ġliberal":12640,"Ġmysteries":12641,"ĠMemorial":12642,"Ġtrailer":12643,"Ġpaused":12644,"Police":12645,"Ġmarginal":12646,"Ġneutral":12647,"ĠLloyd":12648,"Ġthoroughly":12649,"Ġritual":12650,"Ġunexpected":12651,"88":12652,"Won":12653,"ahedron":12654,"lD":12655,"love":12656,"oj":12657,"rating":12658,"Ġware":12659,"Ġrend":12660,"Ġreception":12661,"Ġrenew":12662,"acre":12663,"ĠCare":12664,"ĠCemetery":12665,"ĠMaha":12666,"olis":12667,"ellig":12668,"Ġrh":12669,"ĠGir":12670,"ĠFu":12671,"ĠLam":12672,"ĠEN":12673,"ĠOrange":12674,"Ġ1913":12675,"ĠKl":12676,"osexual":12677,"neum":12678,"Ġbacks":12679,"olley":12680,"ĠVenez":12681,"Ġguid":12682,"Ġundert":12683,"Ġresolution":12684,"Ġcarn":12685,"Ġchin":12686,"Ġleap":12687,"grand":12688,"Ġ42":12689,"ĠMario":12690,"ottage":12691,"Ġdecides":12692,"Ġmush":12693,"Ġbuses":12694,"Ġbasement":12695,"Ġethan":12696,"Ġ1924":12697,"Ġ1927":12698,"Ġactivist":12699,"Ġcelebration":12700,"Ġfatal":12701,"Ġwaist":12702,"Guess":12703,"Ġrequirements":12704,"Ġutil":12705,"Ġaxis":12706,"ĠWalker":12707,"Ġphenomen":12708,"asketball":12709,"ĠDynasty":12710,"Ġprosper":12711,"Ġfictional":12712,"04":12713,"09":12714,"66":12715,"Det":12716,"London":12717,"Ty":12718,"ao":12719,"aus":12720,"sil":12721,"whel":12722,"Ãº":12723,"âĪ":12724,"Ġtent":12725,"Ġwages":12726,"Ġbicy":12727,"Ġcater":12728,"ĠIvan":12729,"Ġhosp":12730,"amo":12731,"ĠChampion":12732,"ĠMand":12733,"andin":12734,"ĠPir":12735,"ĠWalt":12736,"qual":12737,"ĠKay":12738,"ĠKey":12739,"Ġagencies":12740,"Ġpeoples":12741,"Ġtwisted":12742,"Ġfeast":12743,"Ġunfortunate":12744,"issions":12745,"ĠShel":12746,"Ġdistinction":12747,"Ġreader":12748,"Ġcollar":12749,"Ġrepublic":12750,"Ġskull":12751,"Ġfilmed":12752,"Ġinspiration":12753,"Ġsolic":12754,"covery":12755,"Ġorganisation":12756,"Ġtrend":12757,"Ġceiling":12758,"Ġapprove":12759,"ĠMississippi":12760,"Ġinvolving":12761,"Ġposted":12762,"Ġdepressed":12763,"Ġpropag":12764,"Ġrespectively":12765,"Ġrepresentation":12766,"True":12767,"guard":12768,"ancouver":12769,"ĠRegional":12770,"Ġdanced":12771,"Ġ1890":12772,"Ġlogic":12773,"ekaboo":12774,"Ġcustomer":12775,"ĠArabia":12776,"ĠFrederick":12777,"IGHS":12778,"ĠCatal":12779,"Ġwidow":12780,"Ġwritings":12781,"Ġcorporate":12782,"Ġtorture":12783,"ĠHunter":12784,"72":12785,"Cam":12786,"GS":12787,"July":12788,"National":12789,"Tonight":12790,"WS":12791,"dia":12792,"hist":12793,"sometimes":12794,"á»":12795,"ĠtÎ¿":12796,"Ġwolves":12797,"Ġsins":12798,"Ġbonds":12799,"Ġfet":12800,"Ġpub":12801,"arat":12802,"Ġlod":12803,"ĠIng":12804,"ĠSey":12805,"Ġstared":12806,"ĠHERE":12807,"Ġliver":12808,"thou":12809,"ĠWhich":12810,"ĠGus":12811,"ĠRet":12812,"Ġshove":12813,"ĠLang":12814,"ĠLock":12815,"ĠNich":12816,"Ġvirgin":12817,"ĠOp":12818,"Ġnobles":12819,"venge":12820,"Ġclay":12821,"hoibi":12822,"ĠYouth":12823,"Ġcounted":12824,"Ġmini":12825,"Ġregards":12826,"Ġcolumns":12827,"Ġrifle":12828,"Ġinsisted":12829,"Ġvisits":12830,"Ġadmire":12831,"ĠManhattan":12832,"ĠPhill":12833,"Ġbottles":12834,"Ġhanged":12835,"Ġsticks":12836,"OWN":12837,"Ġthreatening":12838,"ĠJerusalem":12839,"Ġoccupation":12840,"ĠLucy":12841,"Ġcategories":12842,"Ġlegislation":12843,"Ġcertific":12844,"Ġcontroversy":12845,"uerto":12846,"children":12847,"Ġbothered":12848,"Ġconvenient":12849,"92":12850,"DR":12851,"Hot":12852,"WO":12853,"bear":12854,"ku":12855,"à¥":12856,"Ġtenth":12857,"inea":12858,"isure":12859,"Ġcam":12860,"inge":12861,"Ġpoo":12862,"Ġnerve":12863,"eting":12864,"ĠSnow":12865,"ĠCors":12866,"ĠCBS":12867,"ĠCÃ¦sar":12868,"ĠMans":12869,"ĠMAN":12870,"Ġdoggie":12871,"illo":12872,"ĠBrig":12873,"ĠPole":12874,"ells":12875,"Ġjer":12876,"ĠRain":12877,"ĠRab":12878,"ĠJama":12879,"Ġexit":12880,"udson":12881,"wealth":12882,"ormal":12883,"Ġneedle":12884,"Ġcontents":12885,"Ġcontempt":12886,"Ġdiff":12887,"Ġrealised":12888,"Ġdecade":12889,"Ġwarming":12890,"insky":12891,"reaming":12892,"uffs":12893,"Ġrepair":12894,"Ġevac":12895,"Thus":12896,"Thought":12897,"Ġtriple":12898,"ĠCaribbean":12899,"ikes":12900,"Ġmarkets":12901,"Ġvisiting":12902,"umbai":12903,"ĠLords":12904,"Ġstriking":12905,"ĠMedical":12906,"Ġbanned":12907,"Professor":12908,"Ġsensation":12909,"ĠNorwegian":12910,"ĠJuliet":12911,"Ġdispute":12912,"Ġmiracle":12913,"Ġbabe":12914,"ĠFerrier":12915,"Ġmythology":12916,"Ġpartnership":12917,"Ġlungs":12918,"ĠPersian":12919,"Ġnitrogen":12920,"Ġterrified":12921,"ĠWrestling":12922,"Ġadapted":12923,"Ġnaughty":12924,"Ġgossip":12925,".;":12926,"Bas":12927,"German":12928,"Lady":12929,"ML":12930,"lace":12931,"overs":12932,"rations":12933,"var":12934,"vonne":12935,"Ġbob":12936,"Ġcents":12937,"Ġdried":12938,"ativity":12939,"asks":12940,"Ġgum":12941,"Ġgau":12942,"Ġrect":12943,"ĠMoney":12944,"ĠBart":12945,"ĠBert":12946,"ĠPed":12947,"ĠPant":12948,"ĠTall":12949,"Ġjokes":12950,"Ġcann":12951,"istical":12952,"ĠRaven":12953,"Ġconvert":12954,"early":12955,"pling":12956,"plus":12957,"Ġcompound":12958,"Ġimper":12959,"ructure":12960,"Ġperpet":12961,"Ġreserve":12962,"Ġcounties":12963,"Ġkindness":12964,"Ġsymmet":12965,"Ġassured":12966,"ĠReal":12967,"ĠIndust":12968,"Ġartillery":12969,"Ġcolonel":12970,"ĠCountry":12971,"ĠAustin":12972,"Chief":12973,"Ġsnakes":12974,"Ġkissing":12975,"ĠGlen":12976,"Surely":12977,"ĠMadrid":12978,"ĠAntar":12979,"agonal":12980,"Ġremarked":12981,"Ġanswering":12982,"Ġgorgeous":12983,"Ġdemocracy":12984,"Ġswallow":12985,"ĠStewart":12986,"Ġvulnerable":12987,"Ġrehears":12988,"SI":12989,"Women":12990,"],":12991,"hur":12992,"maid":12993,"qi":12994,"Ġtum":12995,"Ġcups":12996,"eton":12997,"Ġrelevant":12998,"ĠSweet":12999,"ĠChel":13000,"ĠMess":13001,"ĠPay":13002,"ĠTerry":13003,"oline":13004,"Ġjunk":13005,"Ġsocks":13006,"ĠRoute":13007,"Ġcongrat":13008,"ĠNev":13009,"âĢĺ":13010,"uddy":13011,"ĠKaz":13012,"ĠKatherine":13013,"Ġclick":13014,"hyd":13015,"Ġblows":13016,"ĠVis":13017,"ĠInspector":13018,"rup":13019,"aux":13020,"Ġcargo":13021,"riends":13022,"Ġdrummer":13023,"ĠAlaska":13024,"Ġinvaded":13025,"Ġinvisible":13026,"Ġfewer":13027,"Ġmainland":13028,"ĠThird":13029,"Ġ95":13030,"Ġpromises":13031,"Ġcontinuous":13032,"Ġcontrolling":13033,"Ġagenda":13034,"sterdam":13035,"Ġfilming":13036,"Ġappearing":13037,"Ġsends":13038,"Ġdiary":13039,"comb":13040,"Ġlowest":13041,"Ġpropose":13042,"ominations":13043,"Ġ1921":13044,"Ġ1926":13045,"Ġcomplain":13046,"ĠMedal":13047,"Ġsurviv":13048,"Ġflee":13049,"Ġlovers":13050,"minute":13051,"Fucking":13052,"Ġclimbing":13053,"Ġvanished":13054,"ĠDespite":13055,"Ġrequested":13056,"Ġpurely":13057,"Ġpriority":13058,"ĠGeoff":13059,"................":13060,"Ġnickname":13061,"ĠCroatian":13062,"otype":13063,"Ġsustainable":13064,"Ġgalax":13065,"ĠArmenian":13066,"ĠTechnology":13067,"ĠSofla":13068,"namese":13069,"Cla":13070,"DE":13071,"GA":13072,"Gar":13073,"June":13074,"Mil":13075,"September":13076,"TR":13077,"bul":13078,"brew":13079,"fu":13080,"front":13081,"list":13082,"lings":13083,"tra":13084,"zan":13085,"Ġtheat":13086,"oug":13087,"itudes":13088,"angel":13089,"esy":13090,"oton":13091,"Ġhint":13092,"alysis":13093,"Ġhaz":13094,"Ġretain":13095,"ĠSis":13096,"Ġsew":13097,"Ġlip":13098,"ĠPin":13099,"uno":13100,"ĠWes":13101,"eston":13102,"ĠRub":13103,"arte":13104,"Ġshorter":13105,"odia":13106,"ĠOt":13107,"Ġdownload":13108,"Ġunc":13109,"Ġunre":13110,"ĠInn":13111,"Ġcoin":13112,"formed":13113,"Ġslap":13114,"ibal":13115,"Ġgloves":13116,"Ġsworn":13117,"Ġresting":13118,"Ġindigenous":13119,"braska":13120,"apper":13121,"Almost":13122,"ĠBeck":13123,"Ġordering":13124,"Ġawait":13125,"ennon":13126,"Ġcrept":13127,"Ġ1925":13128,"Ġsailor":13129,"Ġpermit":13130,"Ġreferring":13131,"iotics":13132,"Cheers":13133,"books":13134,"Ġpreferred":13135,"Ġrestaurants":13136,"intendent":13137,"LAUGHTER":13138,"Ġsympat":13139,"Ġinterrupted":13140,"Ġvertices":13141,"President":13142,"Ġbridges":13143,"ĠJoyce":13144,"Ġsuspicion":13145,"Ġartificial":13146,"78":13147,"April":13148,"Bo":13149,"Bon":13150,"Certainly":13151,"EX":13152,"Save":13153,"Tur":13154,"Walk":13155,"hill":13156,"tar":13157,"vironment":13158,"Ãł":13159,"Ġtu":13160,"once":13161,"Ġcust":13162,"Ġcemetery":13163,"Ġmaps":13164,"Ġflex":13165,"Ġdwarf":13166,"Ġpneum":13167,"atched":13168,"Ġnan":13169,"Ġhug":13170,"Ġecho":13171,"enton":13172,"ĠMorning":13173,"Ġdock":13174,"ĠBea":13175,"ĠPittsburgh":13176,"ĠDal":13177,"ĠDug":13178,"Ġalter":13179,"ĠFuk":13180,"Ġmanip":13181,"Ġmanaging":13182,"Ġtrous":13183,"Ġtwent":13184,"ĠStill":13185,"ĠStock":13186,"Ġprey":13187,"Ġrecru":13188,"ĠBron":13189,"Ġmarching":13190,"atively":13191,"Ġproducers":13192,"Ġchasing":13193,"ĠFront":13194,"shop":13195,"ATT":13196,"Ġpathetic":13197,"Ġoperates":13198,"Ġorganised":13199,"Ġdesignated":13200,"Ġdelicate":13201,"Ġrocket":13202,"Ġsexy":13203,"Ġpublisher":13204,"Ġforgetting":13205,"regular":13206,"Unfortunately":13207,"ammar":13208,"Ġmixture":13209,"Ġsandwich":13210,"ĠBenjamin":13211,"Scott":13212,"ĠDelaware":13213,"Ġrubbish":13214,"Tommy":13215,"ĠÂ¶":13216,"ĠNazis":13217,"Ġtowel":13218,"Ġestablishment":13219,"ĠBradford":13220,"Ġcontroversial":13221,"Ġbombs":13222,"Ġregistered":13223,"ĠCosta":13224,"ĠHurricane":13225,"Ġproportion":13226,"ĠABOUT":13227,"Ġmagnificent":13228,"76":13229,"Aunt":13230,"List":13231,"Pull":13232,"det":13233,"rice":13234,"squ":13235,"tic":13236,"table":13237,"Ġtast":13238,"Ġties":13239,"Ġwret":13240,"Ġmice":13241,"Ġpi":13242,"Ġrecept":13243,"ĠScient":13244,"irable":13245,"irrel":13246,"ĠAud":13247,"ĠAges":13248,"ĠMO":13249,"ĠBed":13250,"unity":13251,"ĠDance":13252,"Ġdefect":13253,"Ġcancel":13254,"ĠGab":13255,"ĠRio":13256,"ĠFitz":13257,"ĠNiger":13258,"oded":13259,"ĠKeep":13260,"Ġtricks":13261,"hika":13262,"soever":13263,"ĠStr":13264,"Ġoffensive":13265,"Ġcoff":13266,"Ġmonument":13267,"ĠReed":13268,"Ġclassroom":13269,"Ġterminal":13270,"Ġballoon":13271,"Ġattacking":13272,"Ġsouthwest":13273,"Chuckles":13274,"Ġ1931":13275,"ĠHarvard":13276,"Ġcrystal":13277,"Ġinflation":13278,"Ġpenalty":13279,"Ġengineers":13280,"Ġphysically":13281,"Ġobserv":13282,"Ġsurvival":13283,"ĠMonte":13284,"ĠOlya":13285,"ĠSaudi":13286,"Ġconsumer":13287,"Ġconsumption":13288,"Ġsubsid":13289,"ampshire":13290,"Ġresponded":13291,"LAUGHS":13292,"ĠRomans":13293,"ĠStanley":13294,"ĠClaire":13295,"Ġpissed":13296,"Ġdiagnosed":13297,"Ġrugby":13298,"ĠUtah":13299,"Ġalleged":13300,"52":13301,"Calm":13302,"QU":13303,"Sn":13304,"Wonder":13305,"aac":13306,"must":13307,"Ġtang":13308,"repre":13309,"Ġwrap":13310,"oning":13311,"Ġpizza":13312,"Ġinfer":13313,"Ġinev":13314,"Ġlemon":13315,"Ġlazy":13316,"ĠIron":13317,"Ġhip":13318,"Ġhen":13319,"Ġheap":13320,"Ġbee":13321,"amples":13322,"ĠSem":13323,"ĠSound":13324,"ĠCond":13325,"ĠMind":13326,"terior":13327,"ĠHampshire":13328,"ĠBol":13329,"Ġneuro":13330,"Ġjim":13331,"ĠGon":13332,"abama":13333,"ĠLabor":13334,"elic":13335,"ĠEuro":13336,"Ġexhib":13337,"Ġmankind":13338,"agen":13339,"agraph":13340,"soon":13341,"ovan":13342,"Ġflame":13343,"Ġscandal":13344,"Ġ43":13345,"ĠAlber":13346,"ĠAlzheimer":13347,"Ġmuscles":13348,"offe":13349,"Ġ600":13350,"Ġcolleges":13351,"Ġfighter":13352,"OND":13353,"Ġpatience":13354,"Ġpursu":13355,"ĠLeo":13356,"Ġengage":13357,"ĠPlan":13358,"Anyone":13359,"Ġworrying":13360,"Ġruins":13361,"Ġcharacteristics":13362,"Ġ250":13363,"Ġexceptions":13364,"offs":13365,"Ġpenet":13366,"Ġrainbow":13367,"Ġfeaturing":13368,"Ġinfluential":13369,"Ġdresses":13370,"Ġsurviving":13371,"ĠMadame":13372,"Ġsmells":13373,"ĠCatholics":13374,"Ġlosses":13375,"ĠRailroad":13376,"Ã¨s":13377,"himself":13378,"Ġadopt":13379,"Ġrecommended":13380,"Ġautomatically":13381,"ĠSongs":13382,"ĠLucas":13383,"Ġfrankly":13384,"ĠAntonio":13385,"Ġrecycling":13386,"Ġoverseas":13387,"ĠAfghanistan":13388,"Ġguidance":13389,"reprene":13390,"06":13391,":\"":13392,"Aah":13393,"Ret":13394,"bin":13395,"cs":13396,"ere":13397,"far":13398,"hou":13399,"lic":13400,"rise":13401,"uously":13402,"zo":13403,"haus":13404,"itated":13405,"Ġlou":13406,"Ġlane":13407,"Ġbegging":13408,"Ġrevers":13409,"outing":13410,"ĠMaimie":13411,"ĠHose":13412,"ĠPhys":13413,"ulu":13414,"ĠWright":13415,"Ġdeer":13416,"ieves":13417,"ĠNBA":13418,"ĠJason":13419,"ĠJesse":13420,"Ġmanners":13421,"ĠKnow":13422,"sole":13423,"Ġclue":13424,"Ġclip":13425,"Ġclause":13426,"Ġbrass":13427,"oviÄĩ":13428,"ĠYi":13429,"issance":13430,"onson":13431,"Ġhandled":13432,"Ġhandkerchief":13433,"grim":13434,"grade":13435,"Ã©s":13436,"Ġsurgeon":13437,"Ġ52":13438,"Ġobsc":13439,"Ġlighter":13440,"Ġlightning":13441,"ĠSpirit":13442,"Forgive":13443,"Ġtriumph":13444,"ĠBey":13445,"Ġwinners":13446,"Ġestimate":13447,"Ġmurders":13448,"THING":13449,"ĠAmsterdam":13450,"Ġ1923":13451,"Ġcooling":13452,"Ġfemin":13453,"Wouldn":13454,"writing":13455,"ÃŃa":13456,"ophie":13457,"Ġmechanical":13458,"Ġcomposers":13459,"ĠBrahm":13460,"Ġgathering":13461,"Ġmolecules":13462,"Ġloyalty":13463,"Obviously":13464,"Ġsearched":13465,"ĠMacedonia":13466,"âĪĴ":13467,"74":13468,"Aust":13469,"DA":13470,"Joe":13471,"Major":13472,"Ron":13473,"Suddenly":13474,"gans":13475,"human":13476,"khar":13477,"Ġtel":13478,"Ġsigh":13479,"erals":13480,"Ġoct":13481,"Ġfist":13482,"aron":13483,"Ġles":13484,"lymouth":13485,"ĠSax":13486,"ĠSciences":13487,"ĠCart":13488,"ĠMiy":13489,"Ġaspir":13490,"Ġsealed":13491,"ĠHat":13492,"ĠHER":13493,"ĠBoo":13494,"ĠBranch":13495,"ĠTrent":13496,"throw":13497,"Ġrag":13498,"Ġsovere":13499,"iege":13500,"ĠFrem":13501,"ĠLiverpool":13502,"Ġleather":13503,"hyl":13504,"Ġbetrayed":13505,"ressing":13506,"Ġshalt":13507,"Ġpolar":13508,"Ġcheating":13509,"Ġregul":13510,"Donald":13511,"Ġelabor":13512,"phones":13513,"Ġmedieval":13514,"Ġdrawer":13515,"Ġrip":13516,"Govern":13517,"umbo":13518,"Ġcouch":13519,"Ġelectrons":13520,"ĠItalians":13521,"Ġgraves":13522,"Ġposter":13523,"Ġcollecting":13524,"Ġruling":13525,"Ġsecretly":13526,"Ġpotato":13527,"Meanwhile":13528,"Ġdiscussing":13529,"Ġplanted":13530,"Ġdigging":13531,"Ġspreading":13532,"Ġsymbols":13533,"Ġphilosopher":13534,"Ġsurround":13535,"market":13536,"Ġboundaries":13537,"Ġreminds":13538,"Ġloudly":13539,"Ġaltar":13540,"Ġdelightful":13541,"Ġghosts":13542,"Ġconstruct":13543,"VERY":13544,"EEP":13545,"Ġvirtue":13546,"ĠBernard":13547,"Ġaccompany":13548,"ĠHugh":13549,"ĠCroce":13550,"Ġaccomplished":13551,"Ġstimul":13552,"ĠFaith":13553,"Ġpeasants":13554,"Ġhedge":13555,"Ġbundle":13556,"94":13557,"Pad":13558,"RL":13559,"Tra":13560,"Wil":13561,"both":13562,"mel":13563,"mod":13564,"nun":13565,"nine":13566,"Î½":13567,"Ġsunk":13568,"eries":13569,"Ġmand":13570,"Ġpul":13571,"Ġpian":13572,"arin":13573,"arter":13574,"owl":13575,"Ġhipp":13576,"Ġheels":13577,"uting":13578,"ĠSi":13579,"ĠCrow":13580,"Ġassemb":13581,"ĠBR":13582,"ĠPage":13583,"unci":13584,"ĠWr":13585,"ĠDob":13586,"ĠDraft":13587,"aber":13588,"ĠJournal":13589,"Ġvoyage":13590,"ĠKw":13591,"ĠKlein":13592,"icky":13593,"ĠStory":13594,"Ġovercome":13595,"plant":13596,"plain":13597,"adeh":13598,"Ġbloom":13599,"ensed":13600,"ĠUnlike":13601,"Ġpole":13602,"itionally":13603,"lier":13604,"airy":13605,"Ġenters":13606,"Ġconsisted":13607,"ĠNewton":13608,"meal":13609,"Ġpopulations":13610,"reams":13611,"Ġimpat":13612,"Ġsitcom":13613,"Ġextinct":13614,"Ġsquire":13615,"Ġdreamed":13616,"Ġsummon":13617,"iences":13618,"Ġprivacy":13619,"Ġverse":13620,"Ġphysic":13621,"ĠHighland":13622,"Bloody":13623,"Ġ1904":13624,"Ġrobbery":13625,"ĠFinland":13626,"Ġdancer":13627,"ĠMagazine":13628,"Ġchapel":13629,"Ġminority":13630,"hearted":13631,"izzy":13632,"Ġconsistent":13633,"Ġtraditionally":13634,"Ġlaboratory":13635,"ĠBrazilian":13636,"Ġbatteries":13637,"ĠTeddy":13638,"ĠFrancesco":13639,"Ġqueer":13640,"ĠGilbert":13641,"ĠSPEAK":13642,"ĠBaseball":13643,"ĠPictures":13644,"Ġbronze":13645,"necessary":13646,"ĠPhoen":13647,"ĠBundes":13648,"71":13649,"Ber":13650,"BLE":13651,"Fre":13652,"Ly":13653,"Ms":13654,"Raw":13655,"Ver":13656,"Wr":13657,"card":13658,"disc":13659,"iens":13660,"jam":13661,"rics":13662,"Ġtatt":13663,"remy":13664,"having":13665,"Ġbail":13666,"Ġbisc":13667,"Ġfoul":13668,"Ġdent":13669,"Ġdensity":13670,"encing":13671,"Ġgardens":13672,"Ġnail":13673,"Ġheir":13674,"Ġbeam":13675,"Ġwasting":13676,"rolled":13677,"ĠCatherine":13678,"ĠPas":13679,"ĠTalk":13680,"ĠFund":13681,"abet":13682,"ĠKam":13683,"ĠItanium":13684,"nered":13685,"Ġbackpack":13686,"ĠVancouver":13687,"herent":13688,"beat":13689,"Ġburial":13690,"Ġflung":13691,"Ġappet":13692,"Ġscoring":13693,"Ġrelieved":13694,"Ġfinest":13695,"Ġregulations":13696,"âĻ¬":13697,"INK":13698,"Ġeleg":13699,"Ġelector":13700,"Ġcaps":13701,"Ġchased":13702,"Ġincom":13703,"Ġimpulse":13704,"Ġcollapse":13705,"ĠThough":13706,"ĠSpace":13707,"ussia":13708,"Ġlawyers":13709,"Ġpatron":13710,"Ġpaste":13711,"Ġtestimony":13712,"Ġprocessing":13713,"Ġpropos":13714,"Ġdining":13715,"Ġrecognise":13716,"Ġobjective":13717,"Ġobserve":13718,"rawford":13719,"Ġtourists":13720,"Ġbiological":13721,"Ġblend":13722,"Ġkicking":13723,"ĠMetropolitan":13724,"ravis":13725,"ĠDevon":13726,"believ":13727,"Ġlicence":13728,"Ġdiamonds":13729,"Ġmanufacturing":13730,"ĠHungary":13731,"Ġembarrassed":13732,"Ġgeometry":13733,"urisdiction":13734,"03":13735,"BR":13736,"Beth":13737,"Kim":13738,"Mag":13739,"Sen":13740,"__":13741,"came":13742,"cott":13743,"iji":13744,"ships":13745,"wife":13746,"{\\":13747,"isons":13748,"Ġbol":13749,"Ġbats":13750,"lley":13751,"Ġtore":13752,"atics":13753,"Ġhood":13754,"Ġthri":13755,"Ġbew":13756,"Ġreef":13757,"ĠSop":13758,"still":13759,"ĠCould":13760,"ĠMaur":13761,"ĠMonsieur":13762,"Ġwhip":13763,"unty":13764,"ĠDy":13765,"ĠDavy":13766,"ĠDennis":13767,"ppen":13768,"pple":13769,"ĠNam":13770,"Ġsuits":13771,"Ġsheets":13772,"Ġprofound":13773,"ĠOregon":13774,"ĠKis":13775,"Ġclo":13776,"Ġoverwhel":13777,"Ġgrasp":13778,"Ġblade":13779,"ocese":13780,"Ġreserv":13781,"liest":13782,"Ġharvest":13783,"azines":13784,"Ġforming":13785,"Ġdrums":13786,"Ġswore":13787,"Ġcharm":13788,"Ġ66":13789,"Ġmedication":13790,"OUND":13791,"Ġplanes":13792,"Ġcurtains":13793,"ARY":13794,"Ġhates":13795,"Ġcorp":13796,"Ġdealer":13797,"Ġpublicly":13798,"Ġtreating":13799,"ĠMickey":13800,"Ġdevoted":13801,"Ġ1922":13802,"Ġcomplaint":13803,"Ġmarketing":13804,"Ġdressing":13805,"Ġbowed":13806,"Ġaccessible":13807,"ĠBelgian":13808,"Ġacquaint":13809,"ĠDelta":13810,"ĠMarshal":13811,"Ġstruggling":13812,"Ġshadows":13813,"Ġcalculated":13814,"ĠPlayStation":13815,"ĠModern":13816,"Ġwealthy":13817,"Ġpreparing":13818,"Ġborrowed":13819,"Relax":13820,"Ġanchor":13821,"ĠOriental":13822,"Ġmosque":13823,"Ġhelicopter":13824,"Ġinterfere":13825,"Ġdatab":13826,"ĠFollowing":13827,"Ġcriteria":13828,"01":13829,"54":13830,"Eric":13831,"Ger":13832,"Green":13833,"IO":13834,"ME":13835,"Mem":13836,"MEN":13837,"Send":13838,"damn":13839,"ih":13840,"kan":13841,"lC":13842,"lay":13843,"mie":13844,"mia":13845,"rast":13846,"tree":13847,"ãģ":13848,"eros":13849,"anche":13850,"Ġtob":13851,"aland":13852,"aco":13853,"amoto":13854,"stable":13855,"Ġmeals":13856,"ĠMember":13857,"ĠMale":13858,"Ġwhore":13859,"ĠWant":13860,"ĠGraham":13861,"Ġsoccer":13862,"essed":13863,"ĠFruit":13864,"ĠLan":13865,"ĠLower":13866,"ĠNumber":13867,"ĠJunior":13868,"Ġworries":13869,"Ġthemes":13870,"ĠKrishna":13871,"Ġarguing":13872,"Ġunl":13873,"izar":13874,"atern":13875,"ĠVo":13876,"ocity":13877,"Ġprejud":13878,"Ġresidence":13879,"Ġscra":13880,"Ġshapes":13881,"Ġmarched":13882,"Ġ54":13883,"Ġdrain":13884,"Ġexpense":13885,"Ġexposure":13886,"eches":13887,"Alice":13888,"Ġparagraph":13889,"iamond":13890,"archy":13891,"Ġcamps":13892,"uka":13893,"reedom":13894,"Ġradical":13895,"Ġdependent":13896,"Ġtraveled":13897,"Ġpermitted":13898,"ĠGreater":13899,"Ġtendency":13900,"Ġsenses":13901,"Johnny":13902,"ĠSamuel":13903,"Ġheroes":13904,"Ġtexts":13905,"ĠÃĹ":13906,"Ġdefendant":13907,"Ġsatisfaction":13908,"ĠConservative":13909,"Ġinstrumental":13910,"ĠCambridge":13911,"Ġcolleague":13912,"Ġsync":13913,"Billboard":13914,"titles":13915,"ĠBulgar":13916,"ĠCraig":13917,"ĠAuthority":13918,"02":13919,"58":13920,"91":13921,"Home":13922,"MP":13923,"Mod":13924,"mil":13925,"oks":13926,"spring":13927,"Ãī":13928,"Ġmaj":13929,"Ġpap":13930,"Ġinaug":13931,"ĠChat":13932,"Ġascend":13933,"church":13934,"ĠHaj":13935,"ĠBass":13936,"ĠBasketball":13937,"anded":13938,"antine":13939,"ĠPA":13940,"gered":13941,"ĠRi":13942,"ĠFood":13943,"Ġoutfit":13944,"Ġexhibit":13945,"ĠOscar":13946,"Ġ1915":13947,"Ġ1912":13948,"neg":13949,"Ġquad":13950,"ruck":13951,"Ġprecip":13952,"Ġflip":13953,"Ġapprent":13954,"Ġserver":13955,"ixed":13956,"Ġsecured":13957,"Ġnamely":13958,"Ġharbour":13959,"Ġdrowned":13960,"ĠAlabama":13961,"Ġsubway":13962,"Ġchains":13963,"Ġlists":13964,"Ġsimult":13965,"atti":13966,"brid":13967,"ĠClinton":13968,"Ġcontinuing":13969,"ĠBlair":13970,"Ġpursuit":13971,"Ġsweep":13972,"Ġguessed":13973,"ĠTrump":13974,"ĠManagement":13975,"Ġcircles":13976,"ĠJoan":13977,"Ġarrives":13978,"Ġimagined":13979,"Ġanticip":13980,"casting":13981,"IDE":13982,"ĠRobinson":13983,"Ġmultiply":13984,"ĠJulia":13985,"Ġcontributions":13986,"boys":13987,"ĠSquad":13988,"Ġrescued":13989,"Ġseverely":13990,"Ġguitarist":13991,"ĠRaja":13992,"Ġjewel":13993,"Ġobliged":13994,"Louis":13995,"ĠVivie":13996,"Ġfascinating":13997,"ĠMicrosoft":13998,"ĠFremantle":13999,"CR":14000,"Either":14001,"Laughs":14002,"October":14003,"PE":14004,"SN":14005,"corn":14006,"court":14007,"folk":14008,"fucker":14009,"hor":14010,"hog":14011,"iated":14012,"mag":14013,"yay":14014,"heard":14015,"Ġwilt":14016,"hak":14017,"Ġcodes":14018,"Ġdual":14019,"asper":14020,"usively":14021,"ayed":14022,"Ġwasted":14023,"stones":14024,"ĠAC":14025,"ĠCut":14026,"ĠMaid":14027,"ĠBureau":14028,"ĠTiger":14029,"ĠTroll":14030,"ĠWald":14031,"estone":14032,"ĠFM":14033,"ĠLar":14034,"emale":14035,"Ġexport":14036,"Ġtwins":14037,"onde":14038,"oger":14039,"Ġcompens":14040,"Ġcomposition":14041,"ovich":14042,".\"--_":14043,"Ġscales":14044,"Ġchannels":14045,"xton":14046,"Ġministers":14047,"Ġchew":14048,"plex":14049,"Ġinvitation":14050,"Ġcharts":14051,"Ġinstruction":14052,"oko":14053,"ierra":14054,"Ġsigning":14055,"Ġ85":14056,"Ġpays":14057,"Ġcurrency":14058,"Ġcorrupt":14059,"ĠTrade":14060,"Ġbargain":14061,"Ġdeparture":14062,"ĠCollins":14063,"Ġenerg":14064,"Ġcloses":14065,"Ġ1909":14066,"glass":14067,"Ġdefended":14068,"ĠReserve":14069,"Ġfirmly":14070,"Ġwitnesses":14071,"Applause":14072,"Ġexclusive":14073,"Ġfrost":14074,"Ġhonourable":14075,"Ġultimate":14076,"Ġfantasy":14077,"Ġincreasingly":14078,"ĠDetective":14079,"ĠPeninsula":14080,"omeday":14081,"Ġchristmas":14082,"Ġadjacent":14083,"Ġnarrative":14084,"Ġprivilege":14085,"Ġopponent":14086,"Ġsatellite":14087,"ĠExecutive":14088,"96":14089,"BER":14090,"Europe":14091,"Fr":14092,"Fer":14093,"Fight":14094,"Law":14095,"Rose":14096,"Sun":14097,"cup":14098,"liter":14099,"pill":14100,"powder":14101,"raine":14102,"tail":14103,"uum":14104,"uity":14105,"itical":14106,"Ġbio":14107,"Ġborough":14108,"anch":14109,"Ġtoxic":14110,"Ġpad":14111,"Ġpoured":14112,"Ġpadd":14113,"Ġpyram":14114,"Ġnails":14115,"Ġhaw":14116,"Ġhare":14117,"Ġhabits":14118,"imer":14119,"amil":14120,"ĠSlo":14121,"ĠSection":14122,"ĠSebastian":14123,"riger":14124,"Ġstalk":14125,"ĠAc":14126,"ĠCand":14127,"Ġumb":14128,"ĠHim":14129,"ĠBuff":14130,"ĠPuerto":14131,"Ġrack":14132,"Ġrational":14133,"ources":14134,"ĠGON":14135,"umi":14136,"ĠRangers":14137,"Ġ1916":14138,"ĠStorm":14139,"Ġamid":14140,"oval":14141,"âĢĿ.":14142,"nox":14143,"Ġsignature":14144,"Ġhumili":14145,"Ġreflected":14146,"ĠClay":14147,"Ġshortest":14148,"arrison":14149,"umbers":14150,"ĠLeft":14151,"Ġballet":14152,"Ġsupports":14153,"Ġstarving":14154,"ĠJackie":14155,"ĠEdith":14156,"attering":14157,"imentary":14158,"Ġcorners":14159,"Ġgraduation":14160,"Ġblocked":14161,"Ġsaddle":14162,"Ġcontracts":14163,"Ġexamined":14164,"minar":14165,"minster":14166,"ttes":14167,"Ġdefending":14168,"Ġscrewed":14169,"Ġqualities":14170,"Ġmotorcycle":14171,"Ġmagnetic":14172,"Ġmoist":14173,"Ġadvertis":14174,"Ġpuppy":14175,"Ġpronounced":14176,"oppy":14177,"Ġannouncement":14178,"UCKLES":14179,"Ġdismissed":14180,"Ġdisgrace":14181,"Ġvampire":14182,"Ġchimney":14183,"Ġsocieties":14184,"Ġtrousers":14185,"Beautiful":14186,"Cool":14187,"Drop":14188,"Gentlemen":14189,"Mine":14190,"Pri":14191,"Ya":14192,"aver":14193,"ipt":14194,"rams":14195,"inate":14196,"including":14197,"Ġcakes":14198,"Ġchampions":14199,"Ġfog":14200,"Ġfran":14201,"eda":14202,"othe":14203,"Ġhind":14204,"ĠSeveral":14205,"stri":14206,"rod":14207,"roph":14208,"adv":14209,"ĠChem":14210,"allie":14211,"Ġassembly":14212,"ĠTamp":14213,"ĠWard":14214,"ĠWick":14215,"ĠWals":14216,"Ġjet":14217,"umed":14218,"ĠRIGHT":14219,"essions":14220,"ĠFurther":14221,"ĠLt":14222,"ĠLiz":14223,"ĠLEO":14224,"rystal":14225,"mented":14226,"Ġaggressive":14227,"iaz":14228,"ĠHeart":14229,"Ġlean":14230,"onda":14231,"Ġbru":14232,"Ġunsuccess":14233,"Ġamend":14234,"Ġflames":14235,"Ġscrap":14236,"Ġcrick":14237,"Ġcrashed":14238,"restrial":14239,"Ġmarine":14240,"Ġpreserve":14241,"Ġglobe":14242,"Ġsubdiv":14243,"Ġprett":14244,"Ġcolored":14245,"Ġsentenced":14246,"ĠBlake":14247,"Ġsolved":14248,"coat":14249,"Ġzinc":14250,"ĠOrthodox":14251,"Ġmagazines":14252,"Ġdiaper":14253,"Ġcharacteristic":14254,"Ġfootballer":14255,"ĠRomanian":14256,"Ġcollections":14257,"Ġsticking":14258,"ĠGreeks":14259,"ĠPeters":14260,"Ġtemperatures":14261,"Ġurgent":14262,"written":14263,"Ġirre":14264,"ĠSalz":14265,"Ġmummy":14266,"ĠMatcham":14267,"itarian":14268,"ĠAdministration":14269,"Ġimprovement":14270,"Ġarrangements":14271,"Ġneighbourhood":14272,"Ġfolded":14273,"Ġconsequence":14274,"ĠVenice":14275,"Imagine":14276,"ĠANY":14277,"Ġdelayed":14278,"Ġventure":14279,"Ġatomic":14280,"ladimir":14281,"Ġprecisely":14282,"Ġlobby":14283,"ĠBirmingham":14284,"Ġabundant":14285,"Ġstyles":14286,"believable":14287,"900":14288,"BM":14289,"Hur":14290,"Les":14291,"Much":14292,"Pass":14293,"boo":14294,"jack":14295,"sat":14296,"sal":14297,"since":14298,"swer":14299,"tor":14300,"tri":14301,"tem":14302,"went":14303,"Ã¸":14304,"Ġsighed":14305,"Ġbrew":14306,"Ġbarr":14307,"Ġdio":14308,"Ġpione":14309,"asi":14310,"ĠId":14311,"icity":14312,"Ġhilda":14313,"etus":14314,"Ġhaste":14315,"uscript":14316,"Ġonwards":14317,"lder":14318,"amation":14319,"ĠSave":14320,"stro":14321,"riages":14322,"adt":14323,"Ġmelt":14324,"Ġank":14325,"ifting":14326,"ĠHorse":14327,"ulum":14328,"ĠDol":14329,"ĠDOWN":14330,"ĠGang":14331,"Ġalliance":14332,"Ġorn":14333,"Ġorche":14334,"ĠEP":14335,"inde":14336,"Ġ1910":14337,"ĠKha":14338,"ĠKra":14339,"arer":14340,"Ġclan":14341,"Ġoffence":14342,"ĠVic":14343,"ccane":14344,"Ġcounts":14345,"Ġattach":14346,"hames":14347,"ublin":14348,"iba":14349,"Ġrestore":14350,"Ġpretended":14351,"Thirty":14352,"Ġfiled":14353,"Ġ81":14354,"flies":14355,"Ġforehead":14356,"Ġexplaining":14357,"Ġrape":14358,"amboo":14359,"Ġviewers":14360,"Ġdefeating":14361,"Ġdamned":14362,"Ġlawn":14363,"Ġcathedral":14364,"Ġportrait":14365,"Ġtravels":14366,"Ġreducing":14367,"Quiet":14368,"Ġpetrol":14369,"Ġassociate":14370,"ĠDesign":14371,"ĠMilton":14372,"rendered":14373,"Ġconfession":14374,"Emily":14375,"Ġstabbed":14376,"Ġsubsequent":14377,"ĠOttoman":14378,"Ġcrawl":14379,"Following":14380,"Ġgrip":14381,"ĠHardy":14382,"urrently":14383,"Ġprofile":14384,"ĠThailand":14385,"mphony":14386,"Ġeternal":14387,"ĠGiralda":14388,"##":14389,"93":14390,"Aud":14391,"Ell":14392,"Eat":14393,"Fant":14394,"Light":14395,"Money":14396,"Pan":14397,"Tri":14398,"cH":14399,"dem":14400,"fol":14401,"mble":14402,"Ġwides":14403,"Ġsor":14404,"Ġoak":14405,"Ġchampionships":14406,"ingway":14407,"Ġdub":14408,"Ġlest":14409,"Ġlime":14410,"Ġgrapes":14411,"icial":14412,"Ġbean":14413,"ĠSout":14414,"seen":14415,"seven":14416,"ĠMall":14417,"ĠHIM":14418,"Ġlily":14419,"ĠPy":14420,"ĠPlymouth":14421,"olo":14422,"ested":14423,"estyle":14424,"ĠRud":14425,"ĠRena":14426,"ĠFinal":14427,"ĠLi":14428,"astics":14429,"ĠKir":14430,"ivan":14431,"Ġnowadays":14432,"Ġovernight":14433,"ountain":14434,"Ġpartial":14435,"ffff":14436,"angular":14437,"ĠYa":14438,"ĠYang":14439,"close":14440,"Ġresolved":14441,"Ġcrushed":14442,"Ġattribut":14443,"Ġearning":14444,"Ã©t":14445,"Ġentreprene":14446,"Ġpersonnel":14447,"Ġpassport":14448,"Ġreaders":14449,"inaudible":14450,"airo":14451,"Ġfootage":14452,"Ġtopics":14453,"Ġexperts":14454,"Ġprotocol":14455,"Ġhonored":14456,"Ġreporting":14457,"Ġbarrier":14458,"Ġadvise":14459,"aima":14460,"ĠAboriginal":14461,"ĠChase":14462,"ĠCapital":14463,"Ġmotive":14464,"sui":14465,"Ġterrific":14466,"Class":14467,"Ġmisery":14468,"Ġsharply":14469,"âĢİ?":14470,"Marie":14471,"Ġparks":14472,"Ġinfluences":14473,"black":14474,"blood":14475,"Ġpersist":14476,"Ġemployee":14477,"Ġcoastal":14478,"Ġsignificance":14479,"ĠChang":14480,"Ġphilosoph":14481,"Ġremarks":14482,"Ġcontributed":14483,"Ġcopyright":14484,"Ġscrub":14485,"Ġmanufactured":14486,"Ġbacon":14487,"Ġconsisting":14488,"Ġconcentrate":14489,"Ġphotographs":14490,"Ġwandering":14491,"Ġdemocratic":14492,"ĠAdmiralty":14493,"ĠRonald":14494,"Ġforbidden":14495,"dinand":14496,"Ġkidnapped":14497,"Ġpresumably":14498,"ĠLeban":14499,
[...]
